<unk>	0
<s>	0
</s>	0
▁t	-0
he	-1
▁a	-2
in	-3
re	-4
ou	-5
▁the	-6
▁w	-7
on	-8
at	-9
▁s	-10
▁I	-11
it	-12
▁o	-13
nd	-14
er	-15
▁m	-16
▁b	-17
▁y	-18
▁c	-19
▁th	-20
ll	-21
is	-22
▁to	-23
en	-24
▁of	-25
▁d	-26
▁you	-27
an	-28
ing	-29
▁g	-30
▁h	-31
▁f	-32
▁p	-33
es	-34
or	-35
ed	-36
▁and	-37
no	-38
▁l	-39
▁in	-40
ic	-41
ar	-42
ve	-43
st	-44
ay	-45
om	-46
▁be	-47
▁O	-48
▁W	-49
ion	-50
▁that	-51
▁it	-52
▁ha	-53
ea	-54
▁re	-55
et	-56
▁u	-57
▁he	-58
▁Y	-59
▁no	-60
se	-61
ent	-62
▁wh	-63
▁S	-64
gh	-65
id	-66
▁T	-67
le	-68
ut	-69
▁e	-70
▁A	-71
▁we	-72
▁on	-73
▁go	-74
▁H	-75
▁is	-76
ri	-77
▁me	-78
al	-79
ld	-80
▁n	-81
ro	-82
ver	-83
▁Oh	-84
as	-85
ght	-86
▁for	-87
▁do	-88
ct	-89
▁k	-90
ce	-91
now	-92
ust	-93
ith	-94
▁this	-95
out	-96
▁have	-97
im	-98
all	-99
▁j	-100
ke	-101
▁N	-102
▁with	-103
oo	-104
ell	-105
▁my	-106
hat	-107
▁C	-108
▁not	-109
ir	-110
ow	-111
ation	-112
ey	-113
▁st	-114
..	-115
ch	-116
ly	-117
▁R	-118
ould	-119
▁G	-120
▁M	-121
kay	-122
▁just	-123
ss	-124
eah	-125
▁U	-126
▁are	-127
▁an	-128
ill	-129
▁li	-130
ee	-131
our	-132
▁su	-133
▁can	-134
od	-135
ome	-136
▁was	-137
▁so	-138
▁all	-139
▁B	-140
▁know	-141
ad	-142
▁No	-143
▁You	-144
ant	-145
her	-146
▁P	-147
ry	-148
▁con	-149
▁as	-150
▁don	-151
am	-152
ate	-153
▁ne	-154
ur	-155
right	-156
ac	-157
ment	-158
▁Yeah	-159
▁what	-160
if	-161
and	-162
op	-163
▁St	-164
▁sh	-165
▁The	-166
▁Okay	-167
ally	-168
▁right	-169
▁at	-170
pp	-171
na	-172
▁J	-173
ain	-174
est	-175
▁D	-176
il	-177
▁What	-178
▁pro	-179
ess	-180
ab	-181
▁your	-182
ore	-183
▁there	-184
▁by	-185
▁ab	-186
▁Hey	-187
th	-188
▁here	-189
▁or	-190
▁It	-191
ook	-192
▁up	-193
▁Well	-194
ec	-195
ink	-196
ist	-197
▁ex	-198
ates	-199
▁out	-200
nit	-201
▁but	-202
art	-203
▁our	-204
ul	-205
▁get	-206
▁gu	-207
ers	-208
▁L	-209
▁think	-210
end	-211
ie	-212
ich	-213
ot	-214
▁gon	-215
▁like	-216
▁wor	-217
▁States	-218
res	-219
reat	-220
▁who	-221
ake	-222
rom	-223
▁about	-224
ight	-225
▁will	-226
nt	-227
ive	-228
▁gonna	-229
ig	-230
know	-231
nited	-232
▁which	-233
▁one	-234
▁United	-235
▁did	-236
▁want	-237
ies	-238
▁pl	-239
▁whe	-240
▁any	-241
▁com	-242
▁got	-243
ep	-244
▁Th	-245
very	-246
au	-247
ect	-248
ter	-249
▁And	-250
?!	-251
▁they	-252
ong	-253
ity	-254
▁mean	-255
ol	-256
ge	-257
...	-258
ther	-259
ice	-260
▁sa	-261
▁been	-262
▁her	-263
▁We	-264
▁So	-265
▁ag	-266
mer	-267
▁see	-268
▁guy	-269
ra	-270
iv	-271
▁from	-272
oss	-273
be	-274
qu	-275
red	-276
ho	-277
em	-278
ff	-279
▁if	-280
▁would	-281
▁al	-282
▁lo	-283
▁has	-284
▁she	-285
ind	-286
▁Jo	-287
un	-288
▁That	-289
▁their	-290
ank	-291
ast	-292
!!	-293
eop	-294
▁really	-295
ort	-296
▁now	-297
ress	-298
um	-299
▁him	-300
▁v	-301
eople	-302
iz	-303
▁F	-304
ary	-305
ica	-306
king	-307
▁look	-308
▁great	-309
▁some	-310
▁them	-311
▁people	-312
itt	-313
ose	-314
hing	-315
ime	-316
ame	-317
▁E	-318
▁Amer	-319
ous	-320
▁Ch	-321
ations	-322
▁am	-323
▁God	-324
▁us	-325
ause	-326
▁may	-327
▁r	-328
▁int	-329
ack	-330
▁act	-331
▁good	-332
▁should	-333
ear	-334
▁Ross	-335
▁uh	-336
▁res	-337
ard	-338
ck	-339
▁off	-340
▁ch	-341
▁say	-342
wn	-343
ere	-344
ure	-345
ine	-346
▁time	-347
us	-348
ven	-349
one	-350
vern	-351
▁sp	-352
mm	-353
orry	-354
ions	-355
▁All	-356
ber	-357
rou	-358
os	-359
▁were	-360
▁when	-361
▁could	-362
▁tell	-363
▁Joey	-364
▁part	-365
▁said	-366
ick	-367
▁fa	-368
▁But	-369
vernment	-370
▁en	-371
▁man	-372
▁again	-373
nder	-374
fore	-375
▁other	-376
▁"	-377
▁had	-378
▁going	-379
ount	-380
bl	-381
▁how	-382
▁okay	-383
are	-384
▁too	-385
ip	-386
▁over	-387
▁every	-388
we	-389
▁Mon	-390
▁sorry	-391
▁de	-392
able	-393
▁Wh	-394
aw	-395
per	-396
ican	-397
▁thing	-398
ler	-399
▁im	-400
▁come	-401
▁make	-402
ance	-403
ence	-404
▁his	-405
▁1	-406
▁call	-407
▁ad	-408
▁app	-409
▁guys	-410
▁then	-411
▁such	-412
lf	-413
ud	-414
▁Go	-415
ident	-416
▁Hi	-417
omet	-418
▁mo	-419
andler	-420
ait	-421
lie	-422
▁Chandler	-423
▁tr	-424
riend	-425
▁se	-426
▁well	-427
▁un	-428
▁bet	-429
ens	-430
▁under	-431
ache	-432
▁day	-433
ble	-434
▁somet	-435
ak	-436
▁pre	-437
▁tal	-438
▁This	-439
▁those	-440
way	-441
▁bec	-442
▁love	-443
ittle	-444
▁back	-445
ue	-446
▁let	-447
▁thou	-448
▁count	-449
ty	-450
▁mu	-451
ving	-452
▁happ	-453
ag	-454
ond	-455
here	-456
▁law	-457
ree	-458
▁didn	-459
▁its	-460
ons	-461
▁He	-462
▁Uh	-463
▁Thank	-464
▁little	-465
ish	-466
▁pea	-467
▁more	-468
iss	-469
ade	-470
achel	-471
▁ro	-472
▁yeah	-473
ubl	-474
▁tw	-475
▁imp	-476
▁need	-477
▁Rachel	-478
▁something	-479
ire	-480
thing	-481
▁never	-482
▁Monica	-483
▁dis	-484
▁Pres	-485
▁American	-486
cc	-487
▁world	-488
▁Government	-489
ict	-490
▁war	-491
▁does	-492
▁President	-493
ory	-494
▁co	-495
▁qu	-496
▁per	-497
pt	-498
▁comm	-499
▁these	-500
▁year	-501
▁peace	-502
ial	-503
age	-504
ious	-505
▁cont	-506
▁much	-507
▁way	-508
▁take	-509
pl	-510
ide	-511
lly	-512
▁cl	-513
▁work	-514
▁friend	-515
▁rem	-516
▁Pho	-517
▁Why	-518
▁Yes	-519
▁Phoe	-520
▁before	-521
▁because	-522
eel	-523
▁rep	-524
▁stu	-525
▁belie	-526
day	-527
ass	-528
▁Phoebe	-529
get	-530
▁Look	-531
▁only	-532
ution	-533
resent	-534
▁bo	-535
ated	-536
▁doing	-537
▁How	-538
ublic	-539
bs	-540
ood	-541
▁ar	-542
uh	-543
▁le	-544
ound	-545
ved	-546
anna	-547
▁sec	-548
▁feel	-549
▁thought	-550
cl	-551
▁very	-552
ody	-553
▁mar	-554
▁two	-555
▁kind	-556
▁where	-557
▁country	-558
irst	-559
▁exp	-560
▁pers	-561
▁upon	-562
rit	-563
▁resp	-564
▁wanna	-565
▁even	-566
fe	-567
oney	-568
▁lea	-569
ful	-570
row	-571
▁rel	-572
▁ser	-573
▁why	-574
▁still	-575
▁believe	-576
▁bl	-577
ach	-578
eas	-579
ise	-580
▁Do	-581
ease	-582
▁bab	-583
▁down	-584
▁give	-585
▁America	-586
ute	-587
isten	-588
▁Cong	-589
▁sure	-590
ually	-591
act	-592
▁cons	-593
▁into	-594
ign	-595
▁last	-596
▁made	-597
eal	-598
▁talk	-599
▁than	-600
▁shall	-601
ady	-602
▁first	-603
▁Congress	-604
urn	-605
self	-606
▁nation	-607
el	-608
ves	-609
body	-610
ition	-611
ru	-612
ace	-613
▁rec	-614
ding	-615
▁She	-616
▁ass	-617
itiz	-618
stit	-619
▁new	-620
ny	-621
▁Now	-622
▁ask	-623
▁hand	-624
▁There	-625
▁wait	-626
▁room	-627
ap	-628
ret	-629
▁att	-630
▁wom	-631
ans	-632
▁gir	-633
▁ind	-634
▁citiz	-635
ult	-636
▁Rep	-637
▁Who	-638
▁big	-639
▁Come	-640
ang	-641
for	-642
uth	-643
▁In	-644
▁fun	-645
ew	-646
hh	-647
ite	-648
▁K	-649
fter	-650
oin	-651
▁umm	-652
ction	-653
▁	-654
▁They	-655
ta	-656
ces	-657
▁ever	-658
▁happen	-659
oh	-660
ath	-661
▁My	-662
▁br	-663
▁sc	-664
aking	-665
so	-666
▁Rea	-667
▁must	-668
by	-669
▁bu	-670
tain	-671
▁pur	-672
ried	-673
▁State	-674
▁night	-675
eep	-676
ilit	-677
▁years	-678
ors	-679
▁gr	-680
ting	-681
▁baby	-682
gether	-683
▁citizens	-684
▁inv	-685
▁try	-686
00	-687
ms	-688
▁ho	-689
▁Sen	-690
▁ent	-691
▁supp	-692
▁against	-693
▁em	-694
▁ter	-695
▁Really	-696
▁pr	-697
▁min	-698
▁same	-699
▁che	-700
erest	-701
▁long	-702
▁play	-703
▁after	-704
iff	-705
▁fre	-706
▁thank	-707
ft	-708
hed	-709
ning	-710
ouse	-711
▁own	-712
▁put	-713
rough	-714
▁care	-715
▁maybe	-716
lp	-717
ian	-718
ile	-719
ener	-720
▁dut	-721
▁inter	-722
oy	-723
ater	-724
▁through	-725
igh	-726
ower	-727
▁end	-728
▁sub	-729
uthor	-730
▁Umm	-731
▁inc	-732
round	-733
▁place	-734
▁Senate	-735
▁together	-736
ob	-737
▁2	-738
▁V	-739
ord	-740
ject	-741
osed	-742
ough	-743
▁Let	-744
▁acc	-745
▁lot	-746
▁best	-747
▁gotta	-748
▁interest	-749
▁Mr	-750
▁Wow	-751
▁cour	-752
hen	-753
ool	-754
ember	-755
▁help	-756
▁laws	-757
▁meet	-758
hee	-759
cess	-760
▁Are	-761
▁ton	-762
▁girl	-763
▁real	-764
▁author	-765
▁better	-766
og	-767
▁dec	-768
▁des	-769
▁might	-770
heebs	-771
▁life	-772
▁today	-773
▁actually	-774
▁If	-775
▁fl	-776
▁Pheebs	-777
▁By	-778
ince	-779
▁diff	-780
▁stuff	-781
▁anything	-782
ex	-783
ied	-784
rop	-785
▁Is	-786
ween	-787
▁set	-788
ather	-789
▁also	-790
▁between	-791
du	-792
▁ya	-793
▁conf	-794
sel	-795
▁Ok	-796
vent	-797
▁Ohh	-798
▁rest	-799
▁offic	-800
▁ob	-801
▁eff	-802
▁doesn	-803
artment	-804
ib	-805
ness	-806
rong	-807
ways	-808
▁hop	-809
▁Good	-810
▁stop	-811
ily	-812
▁ah	-813
each	-814
▁Can	-815
▁ord	-816
ating	-817
▁most	-818
▁please	-819
▁tonight	-820
ia	-821
▁kid	-822
▁reg	-823
▁being	-824
▁without	-825
ix	-826
ild	-827
med	-828
epend	-829
▁free	-830
▁Where	-831
▁quest	-832
▁having	-833
▁government	-834
of	-835
ren	-836
▁op	-837
▁sm	-838
ense	-839
▁Ind	-840
▁won	-841
ither	-842
▁always	-843
▁things	-844
ird	-845
▁ins	-846
▁men	-847
▁milit	-848
▁treat	-849
▁whole	-850
▁Thanks	-851
▁import	-852
▁listen	-853
▁friends	-854
▁respect	-855
--	-856
xt	-857
▁ph	-858
ings	-859
▁fine	-860
▁home	-861
▁pret	-862
▁prov	-863
cy	-864
▁18	-865
▁id	-866
▁aff	-867
▁ear	-868
▁next	-869
▁wanted	-870
stitution	-871
ave	-872
ton	-873
cept	-874
▁May	-875
▁giv	-876
▁num	-877
orrow	-878
▁keep	-879
▁name	-880
▁requ	-881
▁person	-882
▁present	-883
ci	-884
les	-885
man	-886
▁Al	-887
atch	-888
stand	-889
▁nice	-890
▁start	-891
ual	-892
ivil	-893
▁def	-894
▁Here	-895
▁around	-896
▁proper	-897
omm	-898
▁Ex	-899
oint	-900
▁fin	-901
▁hey	-902
▁date	-903
▁left	-904
▁public	-905
you	-906
▁To	-907
ible	-908
ical	-909
▁Don	-910
▁Was	-911
▁swe	-912
▁Just	-913
▁find	-914
▁course	-915
▁within	-916
▁talking	-917
ike	-918
min	-919
▁bro	-920
▁yet	-921
▁both	-922
▁dist	-923
▁prom	-924
▁since	-925
▁'	-926
hip	-927
ner	-928
pid	-929
▁ap	-930
▁hon	-931
▁huh	-932
▁mom	-933
▁told	-934
▁freed	-935
▁military	-936
ail	-937
und	-938
ably	-939
▁Con	-940
▁car	-941
▁done	-942
▁prot	-943
▁went	-944
▁civil	-945
resentat	-946
▁remember	-947
ives	-948
reas	-949
▁bre	-950
▁mat	-951
▁Wait	-952
▁head	-953
▁guess	-954
▁power	-955
ase	-956
ced	-957
▁um	-958
ures	-959
▁bad	-960
▁high	-961
▁found	-962
▁kinda	-963
▁party	-964
▁second	-965
▁married	-966
rib	-967
▁el	-968
ract	-969
ecret	-970
▁each	-971
▁prop	-972
▁purp	-973
▁turn	-974
eneral	-975
▁woman	-976
▁necess	-977
▁proble	-978
air	-979
ost	-980
ple	-981
leep	-982
▁Did	-983
▁pol	-984
▁city	-985
▁hour	-986
nother	-987
▁number	-988
▁persons	-989
▁thinking	-990
cu	-991
ello	-992
form	-993
▁est	-994
▁ext	-995
▁use	-996
▁Rach	-997
▁pick	-998
▁happened	-999
▁understand	-1000
ock	-1001
ever	-1002
ider	-1003
vice	-1004
▁cra	-1005
ished	-1006
▁fact	-1007
▁mess	-1008
▁called	-1009
▁pretty	-1010
abl	-1011
▁oh	-1012
▁sex	-1013
iness	-1014
▁char	-1015
▁hear	-1016
▁live	-1017
▁many	-1018
ecretary	-1019
▁freedom	-1020
▁gl	-1021
ular	-1022
▁Bec	-1023
▁unt	-1024
▁conc	-1025
▁hold	-1026
ertain	-1027
▁Hello	-1028
▁bring	-1029
▁another	-1030
▁serious	-1031
av	-1032
ern	-1033
land	-1034
▁hum	-1035
▁wed	-1036
▁wee	-1037
ility	-1038
▁means	-1039
▁protect	-1040
iew	-1041
led	-1042
ered	-1043
▁leg	-1044
▁comp	-1045
▁inst	-1046
ritory	-1047
▁honey	-1048
▁stupid	-1049
▁nations	-1050
▁wedding	-1051
▁Republic	-1052
ize	-1053
▁fore	-1054
▁late	-1055
▁show	-1056
▁stay	-1057
▁money	-1058
▁order	-1059
▁Because	-1060
▁differe	-1061
▁getting	-1062
up	-1063
ead	-1064
uck	-1065
....	-1066
ired	-1067
▁tot	-1068
▁came	-1069
▁else	-1070
▁hard	-1071
▁trans	-1072
▁wrong	-1073
▁establ	-1074
▁nothing	-1075
eg	-1076
oc	-1077
su	-1078
ww	-1079
the	-1080
ude	-1081
unt	-1082
▁Ah	-1083
▁On	-1084
▁fu	-1085
▁mon	-1086
▁old	-1087
▁ready	-1088
▁myself	-1089
mon	-1090
▁sy	-1091
ized	-1092
▁Ooh	-1093
▁sur	-1094
ities	-1095
▁duty	-1096
▁poss	-1097
▁women	-1098
ization	-1099
▁consider	-1100
▁national	-1101
▁relations	-1102
▁therefore	-1103
zy	-1104
▁Un	-1105
▁sw	-1106
ecut	-1107
ward	-1108
▁Not	-1109
▁job	-1110
▁tom	-1111
ision	-1112
▁When	-1113
▁Whoa	-1114
▁miss	-1115
▁Great	-1116
▁sweet	-1117
hington	-1118
▁making	-1119
▁treaty	-1120
▁Washington	-1121
resentatives	-1122
▁ac	-1123
ants	-1124
ents	-1125
ited	-1126
▁Jan	-1127
▁mor	-1128
bably	-1129
▁game	-1130
▁hope	-1131
selves	-1132
▁phone	-1133
▁Listen	-1134
▁looking	-1135
eak	-1136
hes	-1137
iol	-1138
riv	-1139
▁For	-1140
▁bus	-1141
▁cou	-1142
ister	-1143
ments	-1144
▁away	-1145
▁wear	-1146
▁either	-1147
▁totally	-1148
me	-1149
pr	-1150
ety	-1151
men	-1152
▁cr	-1153
aked	-1154
akes	-1155
ange	-1156
ffee	-1157
less	-1158
▁See	-1159
ready	-1160
uring	-1161
▁read	-1162
▁reas	-1163
▁ring	-1164
▁House	-1165
▁exist	-1166
▁later	-1167
▁coming	-1168
▁matter	-1169
▁wouldn	-1170
▁respons	-1171
▁question	-1172
▁authority	-1173
▁important	-1174
▁Constitution	-1175
gg	-1176
ete	-1177
▁Pl	-1178
vers	-1179
▁mind	-1180
▁pass	-1181
▁plan	-1182
▁pres	-1183
▁Right	-1184
▁crazy	-1185
▁given	-1186
▁heart	-1187
▁until	-1188
▁effect	-1189
▁already	-1190
▁problem	-1191
▁purpose	-1192
▁3	-1193
ark	-1194
gan	-1195
not	-1196
▁19	-1197
ured	-1198
▁adv	-1199
▁del	-1200
▁fam	-1201
▁occ	-1202
Where	-1203
▁main	-1204
▁Maybe	-1205
▁happy	-1206
▁sound	-1207
▁three	-1208
▁action	-1209
▁coffee	-1210
▁enough	-1211
▁though	-1212
▁someone	-1213
az	-1214
ef	-1215
aid	-1216
ged	-1217
▁fav	-1218
▁mem	-1219
▁deal	-1220
▁four	-1221
▁land	-1222
▁move	-1223
▁funny	-1224
▁honor	-1225
▁resol	-1226
▁rights	-1227
▁express	-1228
▁tomorrow	-1229
ger	-1230
▁ev	-1231
▁ra	-1232
imes	-1233
▁hot	-1234
ended	-1235
ially	-1236
▁dest	-1237
▁test	-1238
▁compl	-1239
▁probably	-1240
ont	-1241
ump	-1242
▁dr	-1243
▁fo	-1244
clam	-1245
ided	-1246
that	-1247
▁sit	-1248
ering	-1249
▁hund	-1250
▁idea	-1251
▁spec	-1252
▁took	-1253
▁viol	-1254
▁leave	-1255
▁wants	-1256
Whereas	-1257
▁contin	-1258
▁trying	-1259
▁hundred	-1260
▁subject	-1261
▁necessary	-1262
amp	-1263
▁Dr	-1264
▁Um	-1265
ency	-1266
ient	-1267
llow	-1268
nity	-1269
room	-1270
▁Mex	-1271
▁cau	-1272
▁cle	-1273
▁div	-1274
▁eas	-1275
▁far	-1276
▁ref	-1277
▁ret	-1278
▁wal	-1279
arent	-1280
itted	-1281
▁open	-1282
▁wish	-1283
▁sleep	-1284
▁watch	-1285
ecutive	-1286
▁duties	-1287
▁thanks	-1288
▁supposed	-1289
▁everything	-1290
ax	-1291
dy	-1292
ub	-1293
mit	-1294
orn	-1295
tic	-1296
▁Car	-1297
▁Pro	-1298
▁bed	-1299
▁enj	-1300
gress	-1301
▁dire	-1302
itting	-1303
▁human	-1304
▁recomm	-1305
▁morning	-1306
clamation	-1307
got	-1308
iet	-1309
▁Fr	-1310
▁kn	-1311
▁sl	-1312
arge	-1313
ific	-1314
▁Ter	-1315
▁bit	-1316
▁det	-1317
other	-1318
▁five	-1319
▁gave	-1320
▁kill	-1321
▁kiss	-1322
▁true	-1323
▁word	-1324
ention	-1325
▁certain	-1326
ependence	-1327
▁apartment	-1328
acy	-1329
anc	-1330
ars	-1331
nce	-1332
tle	-1333
cuse	-1334
▁...	-1335
▁ans	-1336
▁eat	-1337
▁isn	-1338
▁jud	-1339
▁tri	-1340
▁yes	-1341
ances	-1342
▁meas	-1343
▁priv	-1344
▁seen	-1345
▁wasn	-1346
▁week	-1347
▁alone	-1348
▁while	-1349
▁reason	-1350
▁service	-1351
▁interests	-1352
."	-1353
ah	-1354
my	-1355
oke	-1356
ove	-1357
urt	-1358
ury	-1359
ctor	-1360
what	-1361
ying	-1362
▁Ben	-1363
▁dem	-1364
▁sch	-1365
▁tea	-1366
iding	-1367
ience	-1368
where	-1369
▁Sure	-1370
▁fell	-1371
▁hell	-1372
▁less	-1373
▁rece	-1374
▁view	-1375
▁Sorry	-1376
▁appre	-1377
▁cannot	-1378
▁minute	-1379
▁message	-1380
▁Americans	-1381
to	-1382
aut	-1383
eed	-1384
ets	-1385
aken	-1386
ived	-1387
▁dep	-1388
▁fut	-1389
icult	-1390
▁fail	-1391
▁lead	-1392
▁lost	-1393
ession	-1394
▁liber	-1395
▁state	-1396
▁couldn	-1397
▁forget	-1398
▁hereby	-1399
▁officers	-1400
▁Secretary	-1401
▁4	-1402
gin	-1403
oot	-1404
▁Sp	-1405
▁fr	-1406
▁ok	-1407
ared	-1408
ries	-1409
▁Any	-1410
▁Huh	-1411
▁ago	-1412
▁din	-1413
▁pay	-1414
ately	-1415
▁Fine	-1416
▁pict	-1417
▁sign	-1418
▁These	-1419
▁asked	-1420
▁check	-1421
▁hours	-1422
▁stand	-1423
▁weird	-1424
▁report	-1425
▁saying	-1426
sh	-1427
vel	-1428
▁Ar	-1429
▁As	-1430
▁Sh	-1431
▁ey	-1432
fect	-1433
ital	-1434
utes	-1435
▁Get	-1436
▁add	-1437
▁saw	-1438
ought	-1439
▁bill	-1440
▁caus	-1441
▁cool	-1442
▁disc	-1443
▁full	-1444
▁walk	-1445
▁appro	-1446
▁break	-1447
▁const	-1448
▁lives	-1449
▁throw	-1450
▁follow	-1451
▁future	-1452
▁school	-1453
▁justice	-1454
▁business	-1455
▁responsib	-1456
▁Representatives	-1457
te	-1458
▁$	-1459
hey	-1460
inc	-1461
ocr	-1462
ted	-1463
▁Of	-1464
▁Ow	-1465
fort	-1466
iful	-1467
ised	-1468
▁Our	-1469
▁cre	-1470
▁eng	-1471
urity	-1472
▁cent	-1473
▁cond	-1474
ending	-1475
▁beaut	-1476
▁haven	-1477
ishment	-1478
▁father	-1479
▁foreign	-1480
▁perfect	-1481
▁different	-1482
▁everybody	-1483
!!!	-1484
bye	-1485
huh	-1486
ceed	-1487
stem	-1488
▁ann	-1489
▁lim	-1490
▁pat	-1491
▁answ	-1492
▁hang	-1493
▁mine	-1494
▁once	-1495
▁past	-1496
ctions	-1497
idence	-1498
▁favor	-1499
▁Please	-1500
▁forces	-1501
▁beautiful	-1502
0,	-1503
ph	-1504
arr	-1505
cal	-1506
rol	-1507
▁Me	-1508
▁es	-1509
ploy	-1510
▁mov	-1511
▁nat	-1512
ropri	-1513
▁Does	-1514
▁half	-1515
▁knew	-1516
▁safe	-1517
▁wond	-1518
▁Every	-1519
▁build	-1520
▁class	-1521
▁faith	-1522
▁house	-1523
▁office	-1524
▁others	-1525
▁partic	-1526
▁system	-1527
▁taking	-1528
▁support	-1529
aim	-1530
den	-1531
ipp	-1532
pec	-1533
ush	-1534
duct	-1535
ield	-1536
just	-1537
orts	-1538
▁New	-1539
▁boy	-1540
▁emb	-1541
▁mis	-1542
▁nor	-1543
▁sat	-1544
▁Bing	-1545
▁disp	-1546
▁glad	-1547
▁pray	-1548
▁used	-1549
ission	-1550
stitut	-1551
▁month	-1552
▁anyone	-1553
▁result	-1554
▁Nothing	-1555
▁security	-1556
▁Independence	-1557
ned	-1558
▁Or	-1559
▁po	-1560
ages	-1561
bers	-1562
more	-1563
▁bas	-1564
▁dev	-1565
▁inf	-1566
▁opp	-1567
ality	-1568
owers	-1569
▁hurt	-1570
▁mill	-1571
atever	-1572
▁Carol	-1573
▁bless	-1574
▁enjoy	-1575
▁fight	-1576
▁naked	-1577
▁chance	-1578
▁entire	-1579
▁except	-1580
pecially	-1581
▁anymore	-1582
▁kidding	-1583
▁working	-1584
▁maintain	-1585
▁whatever	-1586
ife	-1587
irt	-1588
ism	-1589
its	-1590
come	-1591
outh	-1592
▁Bob	-1593
▁Dep	-1594
▁fig	-1595
▁fur	-1596
cause	-1597
ified	-1598
▁Like	-1599
▁Then	-1600
▁able	-1601
▁acts	-1602
▁decl	-1603
▁says	-1604
▁writ	-1605
▁among	-1606
▁force	-1607
▁known	-1608
▁light	-1609
▁looks	-1610
▁polit	-1611
▁speak	-1612
▁whose	-1613
▁worry	-1614
▁intern	-1615
▁return	-1616
▁general	-1617
▁telling	-1618
▁thereof	-1619
▁somebody	-1620
▁recommend	-1621
▁Department	-1622
▁protection	-1623
▁respective	-1624
ps	-1625
▁.	-1626
cks	-1627
isl	-1628
rif	-1629
uly	-1630
▁aw	-1631
fact	-1632
unch	-1633
▁Act	-1634
▁beh	-1635
ained	-1636
eller	-1637
olute	-1638
vious	-1639
▁book	-1640
▁easy	-1641
▁goes	-1642
▁gone	-1643
▁soon	-1644
iction	-1645
▁carry	-1646
▁child	-1647
▁close	-1648
▁marry	-1649
▁point	-1650
▁story	-1651
osition	-1652
▁during	-1653
▁expect	-1654
▁object	-1655
▁remain	-1656
▁command	-1657
▁measures	-1658
▁resolution	-1659
▁consideration	-1660
ug	-1661
ash	-1662
erv	-1663
ier	-1664
ten	-1665
ixed	-1666
▁Bye	-1667
▁dad	-1668
▁equ	-1669
▁few	-1670
▁sac	-1671
▁tou	-1672
ative	-1673
rible	-1674
▁days	-1675
▁face	-1676
▁side	-1677
itions	-1678
rought	-1679
▁gener	-1680
▁heard	-1681
▁knows	-1682
▁organ	-1683
ational	-1684
▁caused	-1685
▁dinner	-1686
▁inform	-1687
▁moment	-1688
▁minutes	-1689
▁promise	-1690
▁progress	-1691
▁Territory	-1692
▁attention	-1693
▁themselves	-1694
▁8	-1695
ats	-1696
aur	-1697
ked	-1698
cial	-1699
clud	-1700
erve	-1701
most	-1702
with	-1703
▁Che	-1704
▁Joe	-1705
▁One	-1706
▁met	-1707
▁sal	-1708
▁six	-1709
▁win	-1710
▁Done	-1711
▁conv	-1712
▁hate	-1713
▁hist	-1714
▁lear	-1715
▁opin	-1716
▁seal	-1717
▁stri	-1718
▁Union	-1719
▁Would	-1720
▁accom	-1721
▁comes	-1722
▁hands	-1723
▁makes	-1724
▁occas	-1725
▁satis	-1726
▁taken	-1727
ruction	-1728
▁Janice	-1729
▁anyway	-1730
▁attack	-1731
▁babies	-1732
▁living	-1733
▁sister	-1734
▁brother	-1735
▁increas	-1736
▁appropri	-1737
▁questions	-1738
▁territory	-1739
▁andWhereas	-1740
▁especially	-1741
aj	-1742
ng	-1743
app	-1744
ico	-1745
who	-1746
▁OK	-1747
▁ca	-1748
aged	-1749
airs	-1750
ames	-1751
blig	-1752
eder	-1753
istr	-1754
ural	-1755
▁Man	-1756
▁Noo	-1757
▁cap	-1758
▁dee	-1759
▁ele	-1760
▁rev	-1761
▁sou	-1762
acter	-1763
azing	-1764
ccess	-1765
▁arms	-1766
▁dead	-1767
▁exer	-1768
▁oper	-1769
mitted	-1770
▁oblig	-1771
▁sense	-1772
olutely	-1773
▁Mexico	-1774
▁assist	-1775
▁couple	-1776
▁doctor	-1777
▁family	-1778
▁legisl	-1779
▁General	-1780
▁further	-1781
▁leaders	-1782
▁special	-1783
▁yourself	-1784
▁Executive	-1785
▁information	-1786
▁civilization	-1787
▁relationship	-1788
fu	-1789
Now	-1790
ery	-1791
ork	-1792
▁Gu	-1793
▁Pa	-1794
▁av	-1795
aces	-1796
ighb	-1797
mber	-1798
olog	-1799
oose	-1800
owed	-1801
ross	-1802
▁Mar	-1803
▁dom	-1804
▁nav	-1805
▁pop	-1806
▁ten	-1807
iving	-1808
lcome	-1809
▁adop	-1810
▁ball	-1811
▁seem	-1812
isions	-1813
▁enter	-1814
▁insur	-1815
▁movie	-1816
vention	-1817
▁change	-1818
▁employ	-1819
▁fellow	-1820
▁itself	-1821
▁Alright	-1822
▁appoint	-1823
▁control	-1824
▁picture	-1825
▁complete	-1826
▁character	-1827
▁responsibility	-1828
ES	-1829
gn	-1830
icy	-1831
ins	-1832
rew	-1833
ule	-1834
val	-1835
▁ri	-1836
cour	-1837
ices	-1838
irth	-1839
rope	-1840
▁col	-1841
▁dou	-1842
▁god	-1843
▁run	-1844
allen	-1845
fully	-1846
incip	-1847
▁With	-1848
▁fair	-1849
▁sent	-1850
▁suff	-1851
▁vict	-1852
▁whom	-1853
ederal	-1854
uation	-1855
▁Honey	-1856
▁deter	-1857
▁enfor	-1858
▁girlf	-1859
▁pursu	-1860
▁sever	-1861
▁times	-1862
ublican	-1863
▁commer	-1864
▁neighb	-1865
▁parent	-1866
▁sounds	-1867
▁strong	-1868
▁brought	-1869
▁concern	-1870
▁liberty	-1871
▁success	-1872
▁building	-1873
▁girlfriend	-1874
▁constitution	-1875
AM	-1876
AN	-1877
ts	-1878
ese	-1879
lic	-1880
nam	-1881
pir	-1882
sec	-1883
sue	-1884
▁Em	-1885
▁Eu	-1886
▁pu	-1887
andm	-1888
empt	-1889
▁Aww	-1890
▁box	-1891
▁dra	-1892
▁har	-1893
▁lab	-1894
▁lau	-1895
▁sud	-1896
Cause	-1897
actly	-1898
ently	-1899
unity	-1900
▁Stop	-1901
▁Your	-1902
▁bath	-1903
▁cand	-1904
▁infl	-1905
▁kids	-1906
ection	-1907
▁agree	-1908
▁large	-1909
▁least	-1910
▁local	-1911
▁pract	-1912
▁touch	-1913
▁trust	-1914
ilities	-1915
▁Europe	-1916
▁Geller	-1917
▁Indian	-1918
▁answer	-1919
▁commun	-1920
▁destro	-1921
▁policy	-1922
▁powers	-1923
▁sacrif	-1924
ulations	-1925
▁amazing	-1926
▁princip	-1927
▁several	-1928
▁occasion	-1929
▁received	-1930
▁political	-1931
,"	-1932
gr	-1933
ha	-1934
oe	-1935
▁(	-1936
ept	-1937
iar	-1938
oes	-1939
ony	-1940
reg	-1941
▁Ad	-1942
bian	-1943
ison	-1944
ivid	-1945
ming	-1946
▁Ahh	-1947
▁His	-1948
▁Rem	-1949
▁Tex	-1950
▁abs	-1951
▁exc	-1952
▁hig	-1953
▁hor	-1954
▁mad	-1955
aring	-1956
ature	-1957
▁Some	-1958
▁Viet	-1959
▁coll	-1960
▁cook	-1961
▁cute	-1962
▁deli	-1963
▁fire	-1964
▁heal	-1965
▁thus	-1966
▁artic	-1967
▁birth	-1968
▁cause	-1969
▁small	-1970
▁Nation	-1971
▁manner	-1972
▁threat	-1973
▁affixed	-1974
▁appreci	-1975
▁conduct	-1976
▁engaged	-1977
▁history	-1978
▁private	-1979
▁wearing	-1980
▁difficult	-1981
!"	-1982
ON	-1983
go	-1984
sp	-1985
ene	-1986
ics	-1987
isd	-1988
key	-1989
lin	-1990
ote	-1991
uge	-1992
▁Ap	-1993
▁Aw	-1994
▁De	-1995
cted	-1996
enty	-1997
ging	-1998
goti	-1999
rist	-2000
▁Cub	-2001
▁Ger	-2002
▁Mom	-2003
▁aud	-2004
▁bel	-2005
▁buy	-2006
▁bye	-2007
▁cry	-2008
▁cut	-2009
▁obs	-2010
▁pun	-2011
▁tra	-2012
ested	-2013
ories	-2014
prise	-2015
▁exam	-2016
▁form	-2017
▁hair	-2018
▁lady	-2019
▁luck	-2020
▁sing	-2021
▁song	-2022
▁sugg	-2023
▁tast	-2024
▁town	-2025
icated	-2026
▁Which	-2027
▁exper	-2028
▁front	-2029
▁invol	-2030
▁pants	-2031
▁pregn	-2032
▁produ	-2033
▁relie	-2034
▁Excuse	-2035
▁design	-2036
▁desire	-2037
▁indust	-2038
▁negoti	-2039
▁secret	-2040
▁parties	-2041
▁prevent	-2042
▁proceed	-2043
▁require	-2044
▁continue	-2045
▁republic	-2046
ges	-2047
pre	-2048
▁At	-2049
▁hi	-2050
athy	-2051
clus	-2052
irit	-2053
ises	-2054
oses	-2055
reet	-2056
reng	-2057
riot	-2058
roud	-2059
unto	-2060
▁cho	-2061
▁cir	-2062
▁fel	-2063
▁rat	-2064
▁unl	-2065
aught	-2066
erved	-2067
ester	-2068
otion	-2069
▁Brit	-2070
▁Will	-2071
▁case	-2072
▁issu	-2073
▁mach	-2074
▁pain	-2075
▁stud	-2076
▁wife	-2077
arrass	-2078
ically	-2079
ording	-2080
though	-2081
▁Texas	-2082
▁drink	-2083
▁early	-2084
▁needs	-2085
▁stick	-2086
▁store	-2087
▁table	-2088
▁instru	-2089
▁moving	-2090
▁rather	-2091
▁seeing	-2092
▁streng	-2093
▁destroy	-2094
▁opinion	-2095
▁parents	-2096
▁patriot	-2097
▁whereof	-2098
Secretary	-2099
▁hereunto	-2100
▁terrible	-2101
▁countries	-2102
▁embarrass	-2103
▁authorities	-2104
▁Proclamation	-2105
▁proclamation	-2106
hn	-2107
▁,	-2108
▁6	-2109
000	-2110
als	-2111
ele	-2112
enn	-2113
por	-2114
ril	-2115
ror	-2116
ued	-2117
umb	-2118
▁Am	-2119
cent	-2120
lict	-2121
ream	-2122
wait	-2123
whoa	-2124
▁Nor	-2125
▁bag	-2126
▁bud	-2127
▁cop	-2128
▁gay	-2129
▁key	-2130
▁maj	-2131
▁top	-2132
▁unc	-2133
gment	-2134
ivers	-2135
ooper	-2136
▁Cuba	-2137
▁Miss	-2138
▁Ohhh	-2139
▁evil	-2140
▁exec	-2141
▁eyes	-2142
▁fill	-2143
▁gets	-2144
▁host	-2145
▁prep	-2146
▁sick	-2147
▁step	-2148
▁tick	-2149
ential	-2150
erence	-2151
giving	-2152
ocracy	-2153
▁clear	-2154
▁disch	-2155
▁exerc	-2156
▁extra	-2157
▁issue	-2158
▁relig	-2159
▁roomm	-2160
▁seven	-2161
▁write	-2162
ividual	-2163
▁German	-2164
▁become	-2165
▁common	-2166
▁spirit	-2167
▁wonder	-2168
esterday	-2169
▁Vietnam	-2170
▁allowed	-2171
▁shouldn	-2172
▁started	-2173
▁sweetie	-2174
▁whether	-2175
▁Actually	-2176
▁bathroom	-2177
▁children	-2178
▁determin	-2179
▁everyone	-2180
▁friendly	-2181
▁official	-2182
▁possible	-2183
▁condition	-2184
▁situation	-2185
▁7	-2186
▁9	-2187
▁Q	-2188
enc	-2189
kes	-2190
urb	-2191
▁Ho	-2192
▁sk	-2193
▁ur	-2194
apan	-2195
ians	-2196
ines	-2197
reen	-2198
▁Dad	-2199
▁Uhh	-2200
▁air	-2201
▁ben	-2202
▁cor	-2203
▁dog	-2204
▁enl	-2205
▁sad	-2206
▁saf	-2207
▁sim	-2208
▁sol	-2209
▁son	-2210
belie	-2211
inary	-2212
inite	-2213
▁Comm	-2214
▁John	-2215
▁dang	-2216
▁deep	-2217
▁died	-2218
▁earn	-2219
▁fast	-2220
▁fear	-2221
▁food	-2222
▁join	-2223
▁line	-2224
▁port	-2225
▁seek	-2226
itness	-2227
▁April	-2228
▁Japan	-2229
▁broke	-2230
▁chick	-2231
▁dress	-2232
▁eight	-2233
▁exped	-2234
▁girls	-2235
▁impro	-2236
▁plans	-2237
▁proud	-2238
▁quick	-2239
▁recog	-2240
▁seems	-2241
▁smell	-2242
▁supre	-2243
▁asking	-2244
▁depend	-2245
▁giving	-2246
▁invite	-2247
▁island	-2248
▁months	-2249
▁sudden	-2250
▁toward	-2251
▁twenty	-2252
▁Whereas	-2253
▁playing	-2254
▁victory	-2255
▁welcome	-2256
▁AmericaA	-2257
▁communic	-2258
▁conflict	-2259
▁personal	-2260
▁pregnant	-2261
▁property	-2262
▁satisfact	-2263
▁Republican	-2264
▁commission	-2265
▁convention	-2266
EN	-2267
ER	-2268
Oh	-2269
pe	-2270
▁:	-2271
any	-2272
cri	-2273
equ	-2274
ief	-2275
ops	-2276
une	-2277
▁An	-2278
▁fe	-2279
arry	-2280
atic	-2281
rate	-2282
reed	-2283
▁Ugh	-2284
▁Yep	-2285
▁bar	-2286
▁bra	-2287
▁cri	-2288
▁lad	-2289
▁mus	-2290
▁rul	-2291
iting	-2292
oring	-2293
▁Army	-2294
▁Nice	-2295
▁West	-2296
▁York	-2297
▁clot	-2298
▁comb	-2299
▁doub	-2300
▁felt	-2301
▁hook	-2302
▁mark	-2303
▁remo	-2304
friend	-2305
▁assum	-2306
▁fault	-2307
▁moved	-2308
▁press	-2309
▁words	-2310
ination	-2311
▁Anyway	-2312
▁almost	-2313
▁appear	-2314
▁cooper	-2315
▁forgot	-2316
▁notice	-2317
▁perman	-2318
▁propos	-2319
▁regard	-2320
▁talked	-2321
▁afterno	-2322
▁anybody	-2323
▁enforce	-2324
▁feeling	-2325
▁impress	-2326
▁machine	-2327
▁regular	-2328
▁session	-2329
andmother	-2330
ification	-2331
▁existing	-2332
▁judgment	-2333
▁ourselves	-2334
▁individual	-2335
▁particular	-2336
▁obligations	-2337
▁international	-2338
mn	-2339
uc	-2340
bly	-2341
eth	-2342
iot	-2343
oor	-2344
▁Ab	-2345
▁Fl	-2346
ands	-2347
cher	-2348
irty	-2349
itch	-2350
kend	-2351
over	-2352
rest	-2353
rict	-2354
rown	-2355
said	-2356
seum	-2357
sper	-2358
usan	-2359
▁Dam	-2360
▁ess	-2361
▁gra	-2362
▁lie	-2363
▁mag	-2364
▁mid	-2365
▁sir	-2366
antic	-2367
clock	-2368
ected	-2369
imony	-2370
itive	-2371
llars	-2372
roops	-2373
vable	-2374
▁Josh	-2375
▁July	-2376
▁aren	-2377
▁card	-2378
▁doin	-2379
▁expl	-2380
▁mist	-2381
▁prof	-2382
▁seas	-2383
▁suck	-2384
▁warn	-2385
▁whoa	-2386
▁wind	-2387
encies	-2388
▁Susan	-2389
▁afore	-2390
▁buddy	-2391
▁dance	-2392
▁death	-2393
▁guest	-2394
▁liked	-2395
▁meant	-2396
▁speed	-2397
▁spent	-2398
stances	-2399
▁accept	-2400
▁adjust	-2401
▁asleep	-2402
▁consci	-2403
▁defend	-2404
▁health	-2405
▁honest	-2406
▁museum	-2407
▁opport	-2408
▁safety	-2409
▁accompl	-2410
▁calling	-2411
▁century	-2412
▁clothes	-2413
▁figured	-2414
▁neither	-2415
▁request	-2416
▁therein	-2417
▁audition	-2418
▁institut	-2419
▁peaceful	-2420
▁proposed	-2421
▁according	-2422
▁aforesaid	-2423
▁afternoon	-2424
▁democracy	-2425
▁execution	-2426
▁testimony	-2427
▁yesterday	-2428
▁commercial	-2429
▁established	-2430
5,	-2431
8,	-2432
gu	-2433
rr	-2434
wh	-2435
ale	-2436
cum	-2437
erg	-2438
how	-2439
ilk	-2440
ina	-2441
iny	-2442
iod	-2443
isp	-2444
ley	-2445
ran	-2446
urs	-2447
▁30	-2448
▁Gr	-2449
▁Ha	-2450
!!!!	-2451
chie	-2452
iday	-2453
ides	-2454
medi	-2455
oooo	-2456
ored	-2457
ring	-2458
wise	-2459
▁Hmm	-2460
▁Jul	-2461
▁War	-2462
▁cal	-2463
▁cup	-2464
▁due	-2465
▁emp	-2466
▁hit	-2467
▁mod	-2468
▁sum	-2469
▁sym	-2470
▁val	-2471
▁ves	-2472
ached	-2473
biani	-2474
cious	-2475
ittee	-2476
riage	-2477
verse	-2478
▁Trib	-2479
▁camp	-2480
▁door	-2481
▁foot	-2482
▁huge	-2483
▁oath	-2484
▁post	-2485
▁sole	-2486
▁stat	-2487
course	-2488
icient	-2489
▁South	-2490
▁actor	-2491
▁chang	-2492
▁clean	-2493
▁divor	-2494
▁doubt	-2495
▁equal	-2496
▁famil	-2497
▁final	-2498
▁idiot	-2499
▁limit	-2500
▁loved	-2501
▁major	-2502
▁serve	-2503
▁treas	-2504
▁unlaw	-2505
▁weeks	-2506
▁yours	-2507
▁Island	-2508
▁circum	-2509
▁immedi	-2510
▁longer	-2511
▁passed	-2512
▁period	-2513
▁troops	-2514
▁vessel	-2515
fortable	-2516
▁Mexican	-2517
▁attempt	-2518
▁conclus	-2519
▁dollars	-2520
▁finally	-2521
▁however	-2522
▁leaving	-2523
▁obvious	-2524
▁perform	-2525
▁restaur	-2526
▁suggest	-2527
▁supreme	-2528
▁unbelie	-2529
▁weekend	-2530
▁witness	-2531
▁marriage	-2532
▁millions	-2533
▁roommate	-2534
▁executive	-2535
▁following	-2536
▁confidence	-2537
▁conscience	-2538
▁countrymen	-2539
▁difference	-2540
▁importance	-2541
▁possession	-2542
▁principles	-2543
▁provisions	-2544
▁intercourse	-2545
▁circumstances	-2546
▁understanding	-2547
▁constitutional	-2548
6,	-2549
?"	-2550
An	-2551
io	-2552
lt	-2553
ua	-2554
▁5	-2555
▁[	-2556
alf	-2557
aps	-2558
con	-2559
hib	-2560
ken	-2561
ole	-2562
onn	-2563
own	-2564
utr	-2565
▁17	-2566
▁Eh	-2567
▁Ph	-2568
▁Sc	-2569
▁ty	-2570
aced	-2571
amed	-2572
ched	-2573
eech	-2574
empl	-2575
hens	-2576
ined	-2577
ling	-2578
ndry	-2579
oice	-2580
ping	-2581
uary	-2582
▁Rog	-2583
▁Wor	-2584
▁cas	-2585
▁cat	-2586
▁eye	-2587
▁fan	-2588
▁ill	-2589
▁lay	-2590
▁red	-2591
▁una	-2592
cking	-2593
enses	-2594
iance	-2595
imate	-2596
rease	-2597
▁Give	-2598
▁Mark	-2599
▁blue	-2600
▁body	-2601
▁bond	-2602
▁chef	-2603
▁cost	-2604
▁enem	-2605
▁fort	-2606
▁list	-2607
▁redu	-2608
▁rule	-2609
▁ship	-2610
▁stra	-2611
idered	-2612
▁Check	-2613
▁Treas	-2614
▁achie	-2615
▁along	-2616
▁candy	-2617
▁claim	-2618
▁coast	-2619
▁event	-2620
▁forth	-2621
▁influ	-2622
▁lands	-2623
▁rules	-2624
▁terms	-2625
▁third	-2626
▁thous	-2627
▁truth	-2628
rection	-2629
▁Joshua	-2630
▁across	-2631
▁apolog	-2632
▁applic	-2633
▁bigger	-2634
▁finish	-2635
▁ground	-2636
▁hearts	-2637
▁settle	-2638
▁shower	-2639
▁January	-2640
▁article	-2641
▁capital	-2642
▁defense	-2643
▁earnest	-2644
▁holding	-2645
▁improve	-2646
▁realize	-2647
▁Remember	-2648
▁Treasury	-2649
▁contempl	-2650
▁particip	-2651
▁presents	-2652
▁problems	-2653
▁required	-2654
▁unlawful	-2655
▁Tribbiani	-2656
▁agreement	-2657
▁increased	-2658
▁absolutely	-2659
▁authorized	-2660
▁grandmother	-2661
▁opportunity	-2662
▁Thanksgiving	-2663
▁establishment	-2664
▁representatives	-2665
IS	-2666
sy	-2667
ys	-2668
ama	-2669
ana	-2670
cil	-2671
dle	-2672
era	-2673
ert	-2674
olo	-2675
oon	-2676
ott	-2677
ung	-2678
usb	-2679
▁Mc	-2680
▁ed	-2681
aper	-2682
avid	-2683
ches	-2684
ingu	-2685
omes	-2686
pper	-2687
side	-2688
wear	-2689
▁Big	-2690
▁Mrs	-2691
▁aid	-2692
▁bri	-2693
▁fif	-2694
▁fit	-2695
▁jur	-2696
▁kno	-2697
▁mer	-2698
▁owe	-2699
▁pen	-2700
▁tar	-2701
▁tem	-2702
▁vig	-2703
▁vis	-2704
▁wow	-2705
aries	-2706
ators	-2707
claim	-2708
icked	-2709
itled	-2710
orial	-2711
velop	-2712
▁Dece	-2713
▁Dude	-2714
▁Last	-2715
▁Tell	-2716
▁Very	-2717
▁copy	-2718
▁drop	-2719
▁dump	-2720
▁fall	-2721
▁hero	-2722
▁kept	-2723
▁lose	-2724
▁quit	-2725
▁roll	-2726
▁self	-2727
▁sell	-2728
▁team	-2729
▁tend	-2730
ancing	-2731
ishing	-2732
▁Could	-2733
▁David	-2734
▁Kathy	-2735
▁North	-2736
▁armed	-2737
▁aspir	-2738
▁bucks	-2739
▁dream	-2740
▁field	-2741
▁floor	-2742
▁freak	-2743
▁fully	-2744
▁neutr	-2745
▁offer	-2746
▁parts	-2747
▁reach	-2748
▁recip	-2749
▁relax	-2750
▁scene	-2751
▁share	-2752
▁spend	-2753
▁stuck	-2754
▁taste	-2755
▁teach	-2756
▁worth	-2757
sperity	-2758
▁Father	-2759
▁appeal	-2760
▁behind	-2761
▁belong	-2762
▁conven	-2763
▁excuse	-2764
▁govern	-2765
▁intell	-2766
▁jurisd	-2767
▁recogn	-2768
▁scared	-2769
▁signed	-2770
▁single	-2771
▁street	-2772
ependent	-2773
▁Nations	-2774
▁account	-2775
▁achieve	-2776
▁adopted	-2777
▁challen	-2778
▁exactly	-2779
▁members	-2780
▁million	-2781
▁natural	-2782
▁popular	-2783
▁teacher	-2784
▁December	-2785
▁distingu	-2786
▁feelings	-2787
▁minister	-2788
▁purposes	-2789
▁threaten	-2790
▁watching	-2791
▁boyfriend	-2792
▁constitut	-2793
▁establish	-2794
▁functions	-2795
▁happiness	-2796
▁influence	-2797
▁religious	-2798
▁somewhere	-2799
▁underwear	-2800
resentative	-2801
▁completely	-2802
▁considered	-2803
▁employment	-2804
▁experience	-2805
▁restaurant	-2806
▁throughout	-2807
▁jurisdiction	-2808
▁unbelievable	-2809
No	-2810
aa	-2811
eb	-2812
ls	-2813
?	-2814
?!!	-2815
The	-2816
You	-2817
ani	-2818
ann	-2819
but	-2820
eav	-2821
eez	-2822
eor	-2823
hoo	-2824
ida	-2825
ift	-2826
osp	-2827
oun	-2828
sem	-2829
set	-2830
uff	-2831
unk	-2832
▁12	-2833
000,	-2834
ades	-2835
ains	-2836
appy	-2837
egro	-2838
eous	-2839
hest	-2840
hold	-2841
ires	-2842
ists	-2843
like	-2844
pped	-2845
raid	-2846
▁Ber	-2847
▁Int	-2848
▁Mag	-2849
▁Ser	-2850
▁dam	-2851
▁pie	-2852
andon	-2853
arant	-2854
entle	-2855
erred	-2856
ondon	-2857
ption	-2858
rench	-2859
▁Geor	-2860
▁Have	-2861
▁Rich	-2862
▁clos	-2863
▁cust	-2864
▁grab	-2865
▁grou	-2866
▁mass	-2867
▁milk	-2868
▁none	-2869
▁obst	-2870
▁ours	-2871
▁porn	-2872
▁repe	-2873
▁send	-2874
▁sens	-2875
▁shop	-2876
▁shot	-2877
▁shut	-2878
▁sons	-2879
▁sort	-2880
▁stru	-2881
▁unit	-2882
formed	-2883
itable	-2884
usband	-2885
▁Emily	-2886
▁Green	-2887
▁Negro	-2888
▁Paolo	-2889
▁Spain	-2890
▁World	-2891
▁begin	-2892
▁benef	-2893
▁bitch	-2894
▁cases	-2895
▁enact	-2896
▁grade	-2897
▁grant	-2898
▁heads	-2899
▁pleas	-2900
▁stole	-2901
▁super	-2902
agement	-2903
arently	-2904
cluding	-2905
initely	-2906
ministr	-2907
▁Berlin	-2908
▁London	-2909
▁afford	-2910
▁breast	-2911
▁choose	-2912
▁commit	-2913
▁endeav	-2914
▁figure	-2915
▁issues	-2916
▁looked	-2917
▁prayer	-2918
▁remove	-2919
▁secure	-2920
▁switch	-2921
▁thinks	-2922
▁unless	-2923
▁worked	-2924
▁Federal	-2925
▁address	-2926
▁deliber	-2927
▁disturb	-2928
▁guarant	-2929
▁happens	-2930
▁bringing	-2931
▁constant	-2932
▁contract	-2933
▁decision	-2934
▁entitled	-2935
▁greatest	-2936
▁herewith	-2937
▁intellig	-2938
▁provided	-2939
▁straight	-2940
▁treaties	-2941
▁violence	-2942
▁committed	-2943
▁direction	-2944
▁essential	-2945
▁neighbors	-2946
▁permanent	-2947
▁providing	-2948
▁represent	-2949
▁sacrifice	-2950
▁sometimes	-2951
▁adjustment	-2952
▁regulations	-2953
▁institutions	-2954
▁insurrection	-2955
▁organization	-2956
▁determination	-2957
▁distinguished	-2958
In	-2959
hy	-2960
▁z	-2961
alt	-2962
ams	-2963
ape	-2964
ify	-2965
ior	-2966
ker	-2967
ney	-2968
oid	-2969
ped	-2970
roc	-2971
she	-2972
uch	-2973
ulf	-2974
▁$1	-2975
▁15	-2976
▁Tw	-2977
▁sn	-2978
▁ut	-2979
AMES	-2980
aign	-2981
cuss	-2982
eleb	-2983
head	-2984
ibly	-2985
ickn	-2986
imme	-2987
iven	-2988
rely	-2989
rote	-2990
they	-2991
yeah	-2992
yond	-2993
▁189	-2994
▁anx	-2995
▁arm	-2996
▁gen	-2997
▁inh	-2998
▁inj	-2999
▁los	-3000
▁ori	-3001
▁par	-3002
▁pee	-3003
▁pot	-3004
▁ran	-3005
▁rej	-3006
▁rid	-3007
▁und	-3008
▁vol	-3009
estic	-3010
icted	-3011
itude	-3012
ledge	-3013
lfare	-3014
orida	-3015
otent	-3016
▁Ital	-3017
▁Pete	-3018
▁bear	-3019
▁capt	-3020
▁crit	-3021
▁deem	-3022
▁duck	-3023
▁fund	-3024
▁hosp	-3025
▁joke	-3026
▁mail	-3027
▁ones	-3028
▁peac	-3029
▁pull	-3030
▁rout	-3031
▁sand	-3032
▁save	-3033
▁soup	-3034
▁wall	-3035
ealous	-3036
ensive	-3037
iation	-3038
icking	-3039
iments	-3040
ration	-3041
▁Drake	-3042
▁Julie	-3043
▁White	-3044
▁assem	-3045
▁learn	-3046
▁naval	-3047
▁nickn	-3048
▁paper	-3049
▁quite	-3050
▁shirt	-3051
▁short	-3052
▁space	-3053
▁surre	-3054
▁views	-3055
▁water	-3056
▁wrote	-3057
▁young	-3058
▁Christ	-3059
▁France	-3060
▁French	-3061
▁Should	-3062
▁advice	-3063
▁agreed	-3064
▁amount	-3065
▁behalf	-3066
▁beyond	-3067
▁daught	-3068
▁interf	-3069
▁letter	-3070
▁mother	-3071
▁origin	-3072
▁places	-3073
▁prosec	-3074
▁render	-3075
▁solemn	-3076
▁tempor	-3077
▁terror	-3078
▁Florida	-3079
▁Germany	-3080
▁Richard	-3081
▁advance	-3082
▁alright	-3083
▁citizen	-3084
▁develop	-3085
▁efforts	-3086
▁example	-3087
▁excited	-3088
▁forever	-3089
▁forward	-3090
▁learned	-3091
▁meeting	-3092
▁officer	-3093
▁outside	-3094
▁provide	-3095
▁tickets	-3096
▁vessels	-3097
▁waiting	-3098
▁welfare	-3099
▁willing	-3100
▁Although	-3101
▁Japanese	-3102
▁approved	-3103
▁campaign	-3104
▁devotion	-3105
▁hospital	-3106
▁standard	-3107
▁continued	-3108
▁necessity	-3109
▁appreciate	-3110
▁interested	-3111
ministration	-3112
▁constituted	-3113
▁nationality	-3114
▁construction	-3115
▁appropriation	-3116
▁representative	-3117
9,	-3118
AR	-3119
ai	-3120
do	-3121
ev	-3122
la	-3123
rs	-3124
Hey	-3125
att	-3126
aug	-3127
cha	-3128
der	-3129
fer	-3130
ipl	-3131
izz	-3132
mal	-3133
oci	-3134
ots	-3135
ric	-3136
son	-3137
▁Be	-3138
▁Bl	-3139
▁El	-3140
▁Ew	-3141
▁GR	-3142
▁Sm	-3143
▁ir	-3144
anqu	-3145
bell	-3146
cell	-3147
crib	-3148
eace	-3149
emen	-3150
gest	-3151
hend	-3152
hood	-3153
icks	-3154
merg	-3155
oday	-3156
raph	-3157
rive	-3158
sequ	-3159
teen	-3160
vere	-3161
▁Abs	-3162
▁Cor	-3163
▁Dem	-3164
▁Say	-3165
▁agr	-3166
▁bur	-3167
▁cur	-3168
▁die	-3169
▁dro	-3170
▁nin	-3171
▁nut	-3172
▁pos	-3173
▁tur	-3174
▁ult	-3175
ament	-3176
arter	-3177
aster	-3178
bered	-3179
conom	-3180
fraid	-3181
icing	-3182
oming	-3183
redit	-3184
ulous	-3185
▁Gunt	-3186
▁Nove	-3187
▁conn	-3188
▁coun	-3189
▁dude	-3190
▁fake	-3191
▁fulf	-3192
▁furn	-3193
▁grow	-3194
▁imag	-3195
▁near	-3196
▁paid	-3197
▁rend	-3198
▁star	-3199
▁susp	-3200
▁symp	-3201
▁trib	-3202
▁trou	-3203
▁ways	-3204
aining	-3205
ankind	-3206
iously	-3207
oliday	-3208
stairs	-3209
▁Frank	-3210
▁James	-3211
▁Those	-3212
▁Today	-3213
▁Under	-3214
▁assur	-3215
▁avail	-3216
▁blind	-3217
▁board	-3218
▁boxes	-3219
▁empty	-3220
▁hello	-3221
▁inaug	-3222
▁inhab	-3223
▁knock	-3224
▁labor	-3225
▁lunch	-3226
▁music	-3227
▁occup	-3228
▁peril	-3229
▁takes	-3230
▁tried	-3231
▁turns	-3232
▁upset	-3233
▁weren	-3234
aration	-3235
ipotent	-3236
▁Democr	-3237
▁borrow	-3238
▁bought	-3239
▁choice	-3240
▁deemed	-3241
▁econom	-3242
▁extent	-3243
▁higher	-3244
▁invest	-3245
▁lately	-3246
▁nobody	-3247
▁offend	-3248
▁peacea	-3249
▁prison	-3250
▁prompt	-3251
▁reject	-3252
▁tranqu	-3253
▁turned	-3254
▁window	-3255
ordinary	-3256
▁British	-3257
▁Indians	-3258
▁Mississ	-3259
▁affairs	-3260
▁company	-3261
▁decided	-3262
▁discuss	-3263
▁divorce	-3264
▁evening	-3265
▁federal	-3266
▁fulfill	-3267
▁highest	-3268
▁process	-3269
▁November	-3270
▁agricult	-3271
▁domestic	-3272
▁exercise	-3273
▁humanity	-3274
▁industry	-3275
▁nickname	-3276
▁proclaim	-3277
▁strength	-3278
▁thoughts	-3279
▁thousand	-3280
▁transmit	-3281
▁assistant	-3282
▁concerned	-3283
▁discharge	-3284
▁entertain	-3285
▁expressed	-3286
▁patriotic	-3287
▁wonderful	-3288
▁wondering	-3289
▁Absolutely	-3290
▁conclusion	-3291
▁operations	-3292
▁prosperity	-3293
▁interesting	-3294
▁legislation	-3295
▁recommended	-3296
▁responsible	-3297
▁negotiations	-3298
▁extraordinary	-3299
4,	-3300
ks	-3301
ne	-3302
	-3303
aff	-3304
ald	-3305
cel	-3306
che	-3307
dra	-3308
iam	-3309
irm	-3310
leg	-3311
mma	-3312
pan	-3313
pet	-3314
vey	-3315
wel	-3316
▁11	-3317
▁27	-3318
▁Co	-3319
▁Op	-3320
ancy	-3321
ebru	-3322
iced	-3323
iest	-3324
irds	-3325
look	-3326
oted	-3327
road	-3328
seph	-3329
then	-3330
▁Cal	-3331
▁Got	-3332
▁Her	-3333
▁Isn	-3334
▁age	-3335
▁amb	-3336
▁aut	-3337
▁bat	-3338
▁bug	-3339
▁cam	-3340
▁den	-3341
▁fac	-3342
▁fat	-3343
▁lat	-3344
▁med	-3345
▁pec	-3346
▁rob	-3347
▁rom	-3348
▁sea	-3349
▁sep	-3350
▁squ	-3351
▁str	-3352
▁unf	-3353
anced	-3354
arily	-3355
essor	-3356
ighty	-3357
iment	-3358
irgin	-3359
ouses	-3360
retty	-3361
stood	-3362
urred	-3363
▁Chip	-3364
▁Emma	-3365
▁Jill	-3366
▁Pors	-3367
▁army	-3368
▁bank	-3369
▁burn	-3370
▁exch	-3371
▁feet	-3372
▁held	-3373
▁insp	-3374
▁keys	-3375
▁manu	-3376
▁news	-3377
▁nine	-3378
▁note	-3379
▁peop	-3380
▁pled	-3381
▁sele	-3382
▁sett	-3383
▁soul	-3384
▁west	-3385
▁yell	-3386
acking	-3387
fortun	-3388
istent	-3389
iverse	-3390
ources	-3391
▁Chief	-3392
▁Happy	-3393
▁March	-3394
▁Roger	-3395
▁Since	-3396
▁adequ	-3397
▁ahead	-3398
▁block	-3399
▁blood	-3400
▁bound	-3401
▁brave	-3402
▁brief	-3403
▁canal	-3404
▁catch	-3405
▁celeb	-3406
▁creep	-3407
▁crush	-3408
▁drunk	-3409
▁earth	-3410
▁emerg	-3411
▁energ	-3412
▁feels	-3413
▁often	-3414
▁ought	-3415
▁progr	-3416
▁sandw	-3417
▁shoes	-3418
▁stock	-3419
▁study	-3420
▁sucks	-3421
▁tired	-3422
▁using	-3423
▁value	-3424
▁voice	-3425
▁works	-3426
▁worst	-3427
ebruary	-3428
embered	-3429
itional	-3430
olution	-3431
stitute	-3432
uration	-3433
▁George	-3434
▁Joseph	-3435
▁People	-3436
▁actual	-3437
▁associ	-3438
▁broken	-3439
▁credit	-3440
▁danger	-3441
▁decide	-3442
▁direct	-3443
▁enjoin	-3444
▁filled	-3445
▁gentle	-3446
▁incred	-3447
▁ladies	-3448
▁middle	-3449
▁missed	-3450
▁propri	-3451
▁resist	-3452
▁sorrow	-3453
▁triump	-3454
▁volunt	-3455
▁Gunther	-3456
▁abandon	-3457
▁aggress	-3458
▁changed	-3459
▁concept	-3460
▁concord	-3461
▁consequ	-3462
▁cookies	-3463
▁fitting	-3464
▁greater	-3465
▁husband	-3466
▁imposed	-3467
▁instant	-3468
▁numbers	-3469
▁ordered	-3470
▁peoples	-3471
▁privile	-3472
▁receive	-3473
▁sitting	-3474
▁sweater	-3475
▁warning	-3476
▁withdra	-3477
▁worried	-3478
▁birthday	-3479
▁directed	-3480
▁expected	-3481
▁fighting	-3482
▁increase	-3483
▁internal	-3484
▁investig	-3485
▁involved	-3486
▁pictures	-3487
▁romantic	-3488
▁blessings	-3489
▁emergency	-3490
▁knowledge	-3491
▁listening	-3492
▁righteous	-3493
▁increasing	-3494
▁neutrality	-3495
▁production	-3496
▁punishment	-3497
▁sufficient	-3498
▁appointment	-3499
▁cooperation	-3500
▁disposition	-3501
▁enforcement	-3502
▁governments	-3503
▁immediately	-3504
▁independent	-3505
▁legislature	-3506
▁proceedings	-3507
.'	-3508
2,	-3509
??	-3510
CH	-3511
IN	-3512
bo	-3513
.	-3514
avy	-3515
hmm	-3516
ius	-3517
ope	-3518
ows	-3519
sit	-3520
uls	-3521
▁13	-3522
▁23	-3523
▁Qu	-3524
▁Ro	-3525
▁TH	-3526
▁et	-3527
▁jo	-3528
▁ru	-3529
▁te	-3530
▁wr	-3531
anch	-3532
ator	-3533
awai	-3534
ball	-3535
enth	-3536
hort	-3537
ippi	-3538
itar	-3539
izza	-3540
lies	-3541
okay	-3542
omin	-3543
ourn	-3544
read	-3545
rodu	-3546
ster	-3547
ters	-3548
unny	-3549
▁184	-3550
▁Alm	-3551
▁Eng	-3552
▁Mor	-3553
▁Shh	-3554
▁Tag	-3555
▁ded	-3556
▁fix	-3557
▁ice	-3558
▁led	-3559
▁soo	-3560
astic	-3561
ciety	-3562
iling	-3563
ising	-3564
rence	-3565
uliar	-3566
under	-3567
▁Damn	-3568
▁Hold	-3569
▁June	-3570
▁Mona	-3571
▁Nooo	-3572
▁Nope	-3573
▁Take	-3574
▁cere	-3575
▁desk	-3576
▁duly	-3577
▁firm	-3578
▁fish	-3579
▁hall	-3580
▁hole	-3581
▁inno	-3582
▁plat	-3583
▁poor	-3584
▁spea	-3585
▁subs	-3586
▁trip	-3587
▁virt	-3588
▁wise	-3589
cluded	-3590
cribed	-3591
icable	-3592
▁Corps	-3593
▁Hawai	-3594
▁Peace	-3595
▁Somet	-3596
▁Yemen	-3597
▁admon	-3598
▁adopt	-3599
▁black	-3600
▁bunch	-3601
▁calls	-3602
▁cover	-3603
▁delay	-3604
▁domin	-3605
▁group	-3606
▁hesit	-3607
▁hopes	-3608
▁joint	-3609
▁loves	-3610
▁ports	-3611
▁purse	-3612
▁react	-3613
▁screw	-3614
▁smart	-3615
▁talks	-3616
▁wound	-3617
mission	-3618
▁Little	-3619
▁advant	-3620
▁afraid	-3621
▁assume	-3622
▁branch	-3623
▁dating	-3624
▁demand	-3625
▁exhort	-3626
▁guitar	-3627
▁interp	-3628
▁killed	-3629
▁needed	-3630
▁obtain	-3631
▁opened	-3632
▁permit	-3633
▁prohib	-3634
▁rebell	-3635
▁relief	-3636
▁speech	-3637
▁starts	-3638
▁statue	-3639
▁thirty	-3640
▁turkey	-3641
▁attract	-3642
▁bedroom	-3643
▁carried	-3644
▁declare	-3645
▁freaked	-3646
▁himself	-3647
▁inhabit	-3648
▁instead	-3649
▁invited	-3650
▁laundry	-3651
▁measure	-3652
▁mistake	-3653
▁offense	-3654
▁product	-3655
▁reached	-3656
▁relieve	-3657
▁removal	-3658
▁results	-3659
▁seconds	-3660
▁stopped	-3661
▁triumph	-3662
▁Almighty	-3663
▁February	-3664
▁accompan	-3665
▁adequate	-3666
▁approval	-3667
▁breaking	-3668
▁declared	-3669
▁election	-3670
▁extended	-3671
▁favorite	-3672
▁innocent	-3673
▁intended	-3674
▁manufact	-3675
▁observed	-3676
▁peculiar	-3677
▁position	-3678
▁properly	-3679
▁prosecut	-3680
▁referred	-3681
▁relation	-3682
▁restrict	-3683
▁sometime	-3684
▁surprise	-3685
▁whenever	-3686
▁withdraw	-3687
▁Everybody	-3688
▁apologize	-3689
▁apprehens	-3690
▁available	-3691
▁contained	-3692
▁favorable	-3693
▁otherwise	-3694
▁preserved	-3695
▁provision	-3696
▁commitment	-3697
▁definitely	-3698
▁enterprise	-3699
▁everywhere	-3700
▁remembered	-3701
▁violations	-3702
▁Mississippi	-3703
▁application	-3704
▁aspirations	-3705
▁comfortable	-3706
▁difficulties	-3707
▁ratification	-3708
▁commissioners	-3709
By	-3710
EL	-3711
ij	-3712
ux	-3713
zz	-3714
ane	-3715
arm	-3716
ask	-3717
boy	-3718
eds	-3719
hod	-3720
ilt	-3721
off	-3722
orm	-3723
ral	-3724
rap	-3725
ray	-3726
rie	-3727
ues	-3728
use	-3729
uss	-3730
zel	-3731
▁10	-3732
▁20	-3733
▁3,	-3734
▁Bo	-3735
▁Cl	-3736
▁TV	-3737
▁Tr	-3738
▁ju	-3739
▁wa	-3740
...?	-3741
acle	-3742
bled	-3743
cles	-3744
eers	-3745
egas	-3746
elle	-3747
esty	-3748
even	-3749
gree	-3750
haps	-3751
iary	-3752
onse	-3753
rary	-3754
resp	-3755
tern	-3756
vail	-3757
view	-3758
▁187	-3759
▁196	-3760
▁Bet	-3761
▁Day	-3762
▁Les	-3763
▁Mac	-3764
▁Nah	-3765
▁Off	-3766
▁Ooo	-3767
▁Pac	-3768
▁Rel	-3769
▁Stu	-3770
▁Swe	-3771
▁THE	-3772
▁Two	-3773
▁Way	-3774
▁ate	-3775
▁cab	-3776
▁cow	-3777
▁gar	-3778
▁gun	-3779
▁imm	-3780
▁jam	-3781
▁len	-3782
▁lou	-3783
▁sun	-3784
▁tor	-3785
▁urg	-3786
aging	-3787
arged	-3788
cribe	-3789
ences	-3790
iency	-3791
ights	-3792
kward	-3793
rimin	-3794
ustri	-3795
▁East	-3796
▁Even	-3797
▁Paul	-3798
▁Sept	-3799
▁alto	-3800
▁exig	-3801
▁fash	-3802
▁goal	-3803
▁grat	-3804
▁hung	-3805
▁loss	-3806
▁nerv	-3807
▁nipp	-3808
▁page	-3809
▁prec	-3810
▁ride	-3811
▁sill	-3812
▁sold	-3813
▁tape	-3814
▁tiny	-3815
▁toil	-3816
▁tour	-3817
▁wast	-3818
alties	-3819
ateful	-3820
prised	-3821
prises	-3822
ursday	-3823
▁Adams	-3824
▁Barry	-3825
▁Canad	-3826
▁First	-3827
▁Given	-3828
▁Never	-3829
▁Shoot	-3830
▁Vegas	-3831
▁above	-3832
▁admit	-3833
▁avoid	-3834
▁based	-3835
▁brain	-3836
▁cares	-3837
▁cease	-3838
▁couch	-3839
▁deleg	-3840
▁desir	-3841
▁dying	-3842
▁forfe	-3843
▁judge	-3844
▁keeps	-3845
▁laugh	-3846
▁legal	-3847
▁likes	-3848
▁lines	-3849
▁lived	-3850
▁lying	-3851
▁names	-3852
▁piece	-3853
▁reven	-3854
▁robot	-3855
▁tough	-3856
▁trade	-3857
▁vigil	-3858
▁white	-3859
▁worse	-3860
oration	-3861
ulation	-3862
▁active	-3863
▁agency	-3864
▁battle	-3865
▁button	-3866
▁combin	-3867
▁degree	-3868
▁detail	-3869
▁enable	-3870
▁encour	-3871
▁execut	-3872
▁failed	-3873
▁gotten	-3874
▁hoping	-3875
▁inside	-3876
▁kissed	-3877
▁lights	-3878
▁method	-3879
▁nature	-3880
▁placed	-3881
▁recent	-3882
▁review	-3883
▁salary	-3884
▁satisf	-3885
▁saving	-3886
▁sexual	-3887
standing	-3888
▁Christm	-3889
▁Exactly	-3890
▁Porsche	-3891
▁charity	-3892
▁clearly	-3893
▁contest	-3894
▁contrib	-3895
▁courage	-3896
▁dancing	-3897
▁fashion	-3898
▁holiday	-3899
▁jealous	-3900
▁keeping	-3901
▁mankind	-3902
▁nervous	-3903
▁percent	-3904
▁prayers	-3905
▁reasons	-3906
▁restore	-3907
▁seeking	-3908
▁trouble	-3909
▁European	-3910
▁Thursday	-3911
▁advanced	-3912
▁although	-3913
▁anywhere	-3914
▁blessing	-3915
▁carrying	-3916
▁familiar	-3917
▁incident	-3918
▁practice	-3919
▁presence	-3920
▁previous	-3921
▁proposal	-3922
▁realized	-3923
▁recently	-3924
▁response	-3925
▁sleeping	-3926
▁stripper	-3927
▁suddenly	-3928
▁unfortun	-3929
▁September	-3930
▁Seriously	-3931
▁appointed	-3932
▁certainly	-3933
▁challenge	-3934
▁committee	-3935
▁contracts	-3936
▁discrimin	-3937
▁obviously	-3938
▁penalties	-3939
▁prisoners	-3940
▁propriety	-3941
▁rebellion	-3942
▁statement	-3943
▁suffering	-3944
▁surrender	-3945
▁temporary	-3946
▁altogether	-3947
▁apparently	-3948
▁assistance	-3949
▁downstairs	-3950
▁leadership	-3951
▁patriotism	-3952
▁settlement	-3953
▁strengthen	-3954
▁substitute	-3955
▁citizenship	-3956
▁communicate	-3957
▁destruction	-3958
▁enterprises	-3959
▁individuals	-3960
▁inhabitants	-3961
▁performance	-3962
▁transmitted	-3963
▁appreciation	-3964
▁combinations	-3965
▁independence	-3966
▁intelligence	-3967
▁particularly	-3968
▁satisfaction	-3969
▁satisfactory	-3970
▁accomplishment	-3971
▁administration	-3972
30	-3973
:"	-3974
IL	-3975
It	-3976
LE	-3977
OH	-3978
ba	-3979
co	-3980
▁Z	-3981
▁	-3982
Kay	-3983
bit	-3984
bur	-3985
cle	-3986
ean	-3987
ege	-3988
fet	-3989
hhh	-3990
ien	-3991
int	-3992
ips	-3993
let	-3994
lex	-3995
rog	-3996
ron	-3997
ros	-3998
see	-3999
van	-4000
yal	-4001
▁En	-4002
▁hy	-4003
▁la	-4004
▁ow	-4005
▁pi	-4006
aint	-4007
arch	-4008
aris	-4009
asey	-4010
cean	-4011
cing	-4012
cket	-4013
eals	-4014
east	-4015
endy	-4016
from	-4017
gedy	-4018
gela	-4019
idge	-4020
ijan	-4021
isen	-4022
izab	-4023
lear	-4024
leim	-4025
lied	-4026
mony	-4027
oray	-4028
pire	-4029
rect	-4030
rial	-4031
ront	-4032
ssac	-4033
ulsa	-4034
uous	-4035
vert	-4036
▁Bar	-4037
▁Eww	-4038
▁Pan	-4039
▁Tot	-4040
▁Woo	-4041
▁adj	-4042
▁beg	-4043
▁deb	-4044
▁dry	-4045
▁env	-4046
▁era	-4047
▁fer	-4048
▁fly	-4049
▁hat	-4050
▁mut	-4051
▁neg	-4052
▁tax	-4053
▁vac	-4054
.....	-4055
anger	-4056
ardon	-4057
ctive	-4058
hetic	-4059
icial	-4060
idden	-4061
inced	-4062
inger	-4063
ining	-4064
iplom	-4065
ipped	-4066
isdom	-4067
ishes	-4068
itten	-4069
izing	-4070
minal	-4071
onnie	-4072
regon	-4073
uffay	-4074
unday	-4075
▁Awww	-4076
▁Guys	-4077
▁Hard	-4078
▁Jack	-4079
▁Mary	-4080
▁Mike	-4081
▁Mont	-4082
▁More	-4083
▁Park	-4084
▁Phil	-4085
▁Plus	-4086
▁Sant	-4087
▁abst	-4088
▁acqu	-4089
▁anno	-4090
▁band	-4091
▁blaz	-4092
▁born	-4093
▁bump	-4094
▁cart	-4095
▁club	-4096
▁coat	-4097
▁dark	-4098
▁educ	-4099
▁emin	-4100
▁flag	-4101
▁goin	-4102
▁harb	-4103
▁hasn	-4104
▁kick	-4105
▁navy	-4106
▁pred	-4107
▁reve	-4108
▁seat	-4109
▁spot	-4110
▁tall	-4111
▁trad	-4112
▁vent	-4113
▁vote	-4114
▁wage	-4115
▁warm	-4116
▁wine	-4117
ancial	-4118
employ	-4119
ortion	-4120
regard	-4121
usting	-4122
vision	-4123
▁Bijan	-4124
▁Casey	-4125
▁Franc	-4126
▁Gimme	-4127
▁Issac	-4128
▁Larry	-4129
▁Paris	-4130
▁Tulsa	-4131
▁apart	-4132
▁basis	-4133
▁birds	-4134
▁bonds	-4135
▁books	-4136
▁chair	-4137
▁chief	-4138
▁court	-4139
▁cream	-4140
▁depos	-4141
▁dirty	-4142
▁ended	-4143
▁fired	-4144
▁guide	-4145
▁imper	-4146
▁level	-4147
▁manif	-4148
▁minds	-4149
▁mouth	-4150
▁outra	-4151
▁plane	-4152
▁price	-4153
▁prove	-4154
▁reply	-4155
▁route	-4156
▁separ	-4157
▁steps	-4158
▁ultim	-4159
▁union	-4160
▁unite	-4161
000,000	-4162
ability	-4163
alified	-4164
izabeth	-4165
leimani	-4166
▁Bonnie	-4167
▁Buffay	-4168
▁Monday	-4169
▁Nobody	-4170
▁Oregon	-4171
▁Panama	-4172
▁Pretty	-4173
▁Sunday	-4174
▁Territ	-4175
▁acknow	-4176
▁belief	-4177
▁cheese	-4178
▁compet	-4179
▁concer	-4180
▁custom	-4181
▁diplom	-4182
▁easier	-4183
▁effort	-4184
▁enlist	-4185
▁export	-4186
▁favour	-4187
▁fought	-4188
▁impart	-4189
▁indeed	-4190
▁lawful	-4191
▁limits	-4192
▁memory	-4193
▁movies	-4194
▁normal	-4195
▁pardon	-4196
▁partis	-4197
▁played	-4198
▁season	-4199
▁simple	-4200
▁submit	-4201
▁termin	-4202
▁tribes	-4203
▁useful	-4204
▁vested	-4205
▁wisdom	-4206
iversity	-4207
▁Britain	-4208
▁Italian	-4209
▁Pacific	-4210
▁appears	-4211
▁awkward	-4212
▁careful	-4213
▁college	-4214
▁constru	-4215
▁convers	-4216
▁dangers	-4217
▁existed	-4218
▁failure	-4219
▁hanging	-4220
▁hearing	-4221
▁introdu	-4222
▁limited	-4223
▁meaning	-4224
▁mention	-4225
▁militia	-4226
▁mission	-4227
▁passion	-4228
▁portion	-4229
▁program	-4230
▁putting	-4231
▁quarter	-4232
▁reading	-4233
▁respond	-4234
▁society	-4235
▁tragedy	-4236
▁treason	-4237
▁usually	-4238
▁writing	-4239
▁accident	-4240
▁agencies	-4241
▁annivers	-4242
▁articles	-4243
▁believed	-4244
▁charming	-4245
▁checking	-4246
▁commerce	-4247
▁concerns	-4248
▁counties	-4249
▁criminal	-4250
▁daughter	-4251
▁expenses	-4252
▁families	-4253
▁grateful	-4254
▁horrible	-4255
▁majority	-4256
▁memories	-4257
▁platform	-4258
▁prepared	-4259
▁repeated	-4260
▁speaking	-4261
▁spending	-4262
▁starting	-4263
▁throwing	-4264
▁universe	-4265
▁violated	-4266
▁waitress	-4267
atulations	-4268
employment	-4269
▁Christmas	-4270
▁Committee	-4271
▁Elizabeth	-4272
▁Soleimani	-4273
▁advantage	-4274
▁beginning	-4275
▁community	-4276
▁concluded	-4277
▁confident	-4278
▁conscious	-4279
▁delegates	-4280
▁disregard	-4281
▁enjoyment	-4282
▁financial	-4283
▁generally	-4284
▁gentlemen	-4285
▁honorable	-4286
▁including	-4287
▁interview	-4288
▁offenders	-4289
▁operation	-4290
▁peaceably	-4291
▁permitted	-4292
▁practical	-4293
▁seriously	-4294
▁surprised	-4295
▁Democratic	-4296
▁Everything	-4297
▁Presidents	-4298
▁conditions	-4299
▁department	-4300
▁incredible	-4301
▁maintained	-4302
▁objections	-4303
▁improvement	-4304
▁restoration	-4305
▁suggestions	-4306
▁disturbances	-4307
▁improvements	-4308
▁inauguration	-4309
▁instructions	-4310
▁communication	-4311
▁appropriations	-4312
**	-4313
3,	-4314
7.	-4315
AD	-4316
AY	-4317
OR	-4318
TH	-4319
af	-4320
dd	-4321
hi	-4322
lo	-4323
.	-4324
And	-4325
OHN	-4326
VEL	-4327
can	-4328
chn	-4329
did	-4330
ees	-4331
els	-4332
erk	-4333
gic	-4334
gue	-4335
ini	-4336
ium	-4337
new	-4338
oos	-4339
pro	-4340
syl	-4341
yle	-4342
▁21	-4343
▁25	-4344
▁80	-4345
▁Kn	-4346
▁Ma	-4347
▁Mo	-4348
▁Ms	-4349
▁da	-4350
▁eh	-4351
ISON	-4352
Okay	-4353
Ross	-4354
Yeah	-4355
aded	-4356
aine	-4357
alin	-4358
angu	-4359
anny	-4360
arty	-4361
atur	-4362
bing	-4363
ened	-4364
ggle	-4365
iant	-4366
ilar	-4367
iled	-4368
iles	-4369
imum	-4370
insk	-4371
odle	-4372
port	-4373
rees	-4374
ript	-4375
roke	-4376
ship	-4377
this	-4378
unit	-4379
velt	-4380
▁186	-4381
▁194	-4382
▁App	-4383
▁Col	-4384
▁Die	-4385
▁Div	-4386
▁Had	-4387
▁Hon	-4388
▁Jen	-4389
▁Jud	-4390
▁Pat	-4391
▁San	-4392
▁Whe	-4393
▁Yay	-4394
▁Yet	-4395
▁arr	-4396
▁ban	-4397
▁ble	-4398
▁boo	-4399
▁fab	-4400
▁hur	-4401
▁lip	-4402
▁lob	-4403
▁mir	-4404
▁mur	-4405
▁nap	-4406
▁non	-4407
▁pin	-4408
▁pri	-4409
▁rad	-4410
▁rhy	-4411
▁san	-4412
▁scr	-4413
▁sem	-4414
▁sla	-4415
▁suc	-4416
▁typ	-4417
▁var	-4418
JAMES	-4419
ching	-4420
ecess	-4421
enced	-4422
icago	-4423
icate	-4424
iforn	-4425
iring	-4426
light	-4427
orney	-4428
osaur	-4429
ottom	-4430
perse	-4431
rings	-4432
rival	-4433
stage	-4434
uated	-4435
vania	-4436
vered	-4437
▁Alan	-4438
▁Aren	-4439
▁Bure	-4440
▁Call	-4441
▁Cent	-4442
▁City	-4443
▁Four	-4444
▁From	-4445
▁Iran	-4446
▁Kind	-4447
▁King	-4448
▁Move	-4449
▁Navy	-4450
▁Penn	-4451
▁Prof	-4452
▁Prov	-4453
▁Rome	-4454
▁Toby	-4455
▁Were	-4456
▁anim	-4457
▁area	-4458
▁asks	-4459
▁bald	-4460
▁base	-4461
▁bike	-4462
▁boat	-4463
▁cord	-4464
▁crap	-4465
▁crew	-4466
▁dent	-4467
▁dict	-4468
▁dumb	-4469
▁earl	-4470
▁forg	-4471
▁garb	-4472
▁gift	-4473
▁goof	-4474
▁harm	-4475
▁indu	-4476
▁init	-4477
▁jump	-4478
▁laid	-4479
▁lean	-4480
▁maid	-4481
▁ment	-4482
▁nuts	-4483
▁pack	-4484
▁plen	-4485
▁prin	-4486
▁road	-4487
▁rock	-4488
▁sear	-4489
▁skin	-4490
▁task	-4491
▁tele	-4492
▁unif	-4493
▁unto	-4494
▁vain	-4495
▁vest	-4496
▁weak	-4497
▁wild	-4498
astard	-4499
aution	-4500
ispens	-4501
ograph	-4502
ressed	-4503
ulated	-4504
▁About	-4505
▁Domin	-4506
▁Other	-4507
▁Roose	-4508
▁Sweet	-4509
▁While	-4510
▁abide	-4511
▁activ	-4512
▁alike	-4513
▁amity	-4514
▁aware	-4515
▁beach	-4516
▁bride	-4517
▁built	-4518
▁color	-4519
▁conqu	-4520
▁crime	-4521
▁cross	-4522
▁drive	-4523
▁enemy	-4524
▁fling	-4525
▁grain	-4526
▁homes	-4527
▁hotel	-4528
▁intim	-4529
▁jokes	-4530
▁juice	-4531
▁loyal	-4532
▁mater	-4533
▁named	-4534
▁outta	-4535
▁raise	-4536
▁refle	-4537
▁remed	-4538
▁renew	-4539
▁ridic	-4540
▁rooms	-4541
▁saved	-4542
▁ships	-4543
▁shoot	-4544
▁smile	-4545
▁smoke	-4546
▁sorta	-4547
▁spoke	-4548
▁steal	-4549
▁swear	-4550
▁train	-4551
▁trash	-4552
▁trial	-4553
▁trick	-4554
▁twice	-4555
▁visit	-4556
▁vital	-4557
cellent	-4558
gusting	-4559
ictions	-4560
respond	-4561
▁Damnit	-4562
▁Leslie	-4563
▁Office	-4564
▁Stupid	-4565
▁acting	-4566
▁affect	-4567
▁aiding	-4568
▁allies	-4569
▁became	-4570
▁bottom	-4571
▁brings	-4572
▁causes	-4573
▁claims	-4574
▁compre	-4575
▁confer	-4576
▁cowboy	-4577
▁crying	-4578
▁distin	-4579
▁exists	-4580
▁expend	-4581
▁extend	-4582
▁fourth	-4583
▁genius	-4584
▁handle	-4585
▁herein	-4586
▁hereto	-4587
▁hooked	-4588
▁insure	-4589
▁issued	-4590
▁joined	-4591
▁latter	-4592
▁lovely	-4593
▁member	-4594
▁monkey	-4595
▁mutual	-4596
▁obstru	-4597
▁perpet	-4598
▁picked	-4599
▁points	-4600
▁record	-4601
▁resort	-4602
▁script	-4603
▁seemed	-4604
▁series	-4605
▁stated	-4606
▁summer	-4607
▁survey	-4608
▁tariff	-4609
▁territ	-4610
▁ticket	-4611
▁unfair	-4612
▁united	-4613
▁virtue	-4614
▁walked	-4615
ervation	-4616
iliation	-4617
sylvania	-4618
▁Francis	-4619
▁Morning	-4620
▁Someone	-4621
▁Totally	-4622
▁Welcome	-4623
▁William	-4624
▁actions	-4625
▁answers	-4626
▁arrange	-4627
▁assured	-4628
▁becomes	-4629
▁biggest	-4630
▁comfort	-4631
▁complet	-4632
▁concent	-4633
▁conform	-4634
▁cooking	-4635
▁council	-4636
▁counten	-4637
▁demands	-4638
▁distrib	-4639
▁enemies	-4640
▁enjoyed	-4641
▁expense	-4642
▁explain	-4643
▁fathers	-4644
▁fifteen	-4645
▁follows	-4646
▁helping	-4647
▁hostile	-4648
▁imagine	-4649
▁interru	-4650
▁islands	-4651
▁lasting	-4652
▁leading	-4653
▁letting	-4654
▁markets	-4655
▁missing	-4656
▁offices	-4657
▁prevail	-4658
▁pursuit	-4659
▁removed	-4660
▁reserve	-4661
▁showing	-4662
▁sincere	-4663
▁station	-4664
▁succeed	-4665
▁suppose	-4666
▁thereby	-4667
▁walking	-4668
▁Californ	-4669
▁Hawaiian	-4670
▁admonish	-4671
▁ambition	-4672
▁attacked	-4673
▁dinosaur	-4674
▁distress	-4675
▁economic	-4676
▁entirely	-4677
▁everyday	-4678
▁evidence	-4679
▁exchange	-4680
▁executed	-4681
▁generous	-4682
▁hesitate	-4683
▁incurred	-4684
▁misunder	-4685
▁offering	-4686
▁opinions	-4687
▁preserve	-4688
▁promptly	-4689
▁ratified	-4690
▁relating	-4691
▁reported	-4692
▁resolved	-4693
▁restored	-4694
▁shopping	-4695
▁speedily	-4696
▁standing	-4697
ispensable	-4698
omfortable	-4699
▁Roosevelt	-4700
▁apprehend	-4701
▁celebrate	-4702
▁commanded	-4703
▁convicted	-4704
▁desirable	-4705
▁effective	-4706
▁fundament	-4707
▁happening	-4708
▁interpret	-4709
▁organized	-4710
▁recognize	-4711
▁sensitive	-4712
▁standards	-4713
▁therefrom	-4714
▁violation	-4715
▁University	-4716
▁aggression	-4717
▁convenient	-4718
▁correspond	-4719
▁designated	-4720
▁engagement	-4721
▁expedition	-4722
▁friendship	-4723
▁generation	-4724
▁obligation	-4725
▁population	-4726
▁precaution	-4727
▁reasonable	-4728
▁sacrifices	-4729
▁threatened	-4730
▁ultimately	-4731
▁anniversary	-4732
▁embarrassed	-4733
▁negotiation	-4734
▁participate	-4735
▁plenipotent	-4736
▁Pennsylvania	-4737
▁conversation	-4738
▁respectively	-4739
▁restrictions	-4740
▁unemployment	-4741
▁indispensable	-4742
▁relationships	-4743
".	-4744
'.	-4745
'?	-4746
3.	-4747
6.	-4748
He	-4749
If	-4750
OD	-4751
OO	-4752
St	-4753
TM	-4754
Th	-4755
We	-4756
ii	-4757
nn	-4758
ok	-4759
ti	-4760
ym	-4761
yy	-4762
ze	-4763
	-4764
▁*	-4765
▁-	-4766
00.	-4767
AND	-4768
ANT	-4769
ENT	-4770
HAM	-4771
How	-4772
amb	-4773
asc	-4774
eps	-4775
ext	-4776
fif	-4777
gly	-4778
gon	-4779
gth	-4780
hin	-4781
ino	-4782
itc	-4783
lit	-4784
mes	-4785
mus	-4786
nel	-4787
ona	-4788
ooo	-4789
raq	-4790
rin	-4791
rot	-4792
uel	-4793
ula	-4794
ume	-4795
▁Le	-4796
▁Oo	-4797
▁cu	-4798
What	-4799
ares	-4800
ason	-4801
bert	-4802
eces	-4803
esec	-4804
fire	-4805
five	-4806
ilty	-4807
inet	-4808
lept	-4809
lint	-4810
mine	-4811
moon	-4812
nces	-4813
oked	-4814
ooth	-4815
ouri	-4816
oved	-4817
ples	-4818
rain	-4819
ruit	-4820
time	-4821
urch	-4822
▁185	-4823
▁192	-4824
▁Atl	-4825
▁Aug	-4826
▁Cab	-4827
▁Cle	-4828
▁Cut	-4829
▁Def	-4830
▁Dou	-4831
▁Dum	-4832
▁Men	-4833
▁Old	-4834
▁Que	-4835
▁Red	-4836
▁Reg	-4837
▁Ten	-4838
▁Tom	-4839
▁Ton	-4840
▁Too	-4841
▁Vic	-4842
▁alt	-4843
▁art	-4844
▁bes	-4845
▁cig	-4846
▁cot	-4847
▁der	-4848
▁gri	-4849
▁gym	-4850
▁ham	-4851
▁joy	-4852
▁lar	-4853
▁lit	-4854
▁max	-4855
▁nar	-4856
▁nuc	-4857
▁psy	-4858
▁pus	-4859
▁rip	-4860
▁sil	-4861
▁tie	-4862
▁tux	-4863
▁unn	-4864
▁wea	-4865
aming	-4866
andma	-4867
anish	-4868
ansas	-4869
asing	-4870
elled	-4871
fifth	-4872
herit	-4873
iches	-4874
lying	-4875
night	-4876
ocket	-4877
organ	-4878
ority	-4879
ounds	-4880
place	-4881
rated	-4882
rocal	-4883
there	-4884
uance	-4885
usted	-4886
welve	-4887
wered	-4888
which	-4889
▁Asia	-4890
▁Bill	-4891
▁Both	-4892
▁Bout	-4893
▁Coun	-4894
▁Five	-4895
▁Iraq	-4896
▁Jake	-4897
▁Long	-4898
▁Open	-4899
▁Push	-4900
▁Russ	-4901
▁Such	-4902
▁bell	-4903
▁bind	-4904
▁bite	-4905
▁blow	-4906
▁boss	-4907
▁busy	-4908
▁calm	-4909
▁cast	-4910
▁dear	-4911
▁ends	-4912
▁farm	-4913
▁fool	-4914
▁forb	-4915
▁gold	-4916
▁grad	-4917
▁hide	-4918
▁jack	-4919
▁lies	-4920
▁lift	-4921
▁lock	-4922
▁lots	-4923
▁loud	-4924
▁nail	-4925
▁neck	-4926
▁obed	-4927
▁path	-4928
▁phot	-4929
▁plus	-4930
▁poem	-4931
▁pool	-4932
▁pure	-4933
▁push	-4934
▁rain	-4935
▁rejo	-4936
▁rent	-4937
▁rich	-4938
▁ruin	-4939
▁semi	-4940
▁serv	-4941
▁sink	-4942
▁size	-4943
▁surv	-4944
▁sust	-4945
▁swim	-4946
▁tree	-4947
▁urge	-4948
▁wake	-4949
athies	-4950
etting	-4951
inated	-4952
isters	-4953
itures	-4954
ivered	-4955
soever	-4956
ulment	-4957
urally	-4958
venant	-4959
▁After	-4960
▁Cause	-4961
▁Clint	-4962
▁Count	-4963
▁Daddy	-4964
▁Guess	-4965
▁JAMES	-4966
▁Molly	-4967
▁Naked	-4968
▁Party	-4969
▁Ready	-4970
▁Relax	-4971
▁Santa	-4972
▁Satur	-4973
▁Scott	-4974
▁Still	-4975
▁Their	-4976
▁Watch	-4977
▁Wendy	-4978
▁agent	-4979
▁amend	-4980
▁begun	-4981
▁breat	-4982
▁calam	-4983
▁cheer	-4984
▁coats	-4985
▁congr	-4986
▁drawn	-4987
▁effic	-4988
▁elect	-4989
▁exert	-4990
▁exhib	-4991
▁forms	-4992
▁games	-4993
▁gives	-4994
▁goods	-4995
▁grand	-4996
▁groom	-4997
▁grown	-4998
▁guard	-4999
▁hoped	-5000
▁ident	-5001
▁illeg	-5002
▁indul	-5003
▁langu	-5004
▁navig	-5005
▁noise	-5006
▁pride	-5007
▁prosp	-5008
▁radio	-5009
▁recon	-5010
▁sheet	-5011
▁silly	-5012
▁south	-5013
▁spill	-5014
▁strip	-5015
▁techn	-5016
▁tests	-5017
▁tribe	-5018
▁usual	-5019
▁utter	-5020
▁vigor	-5021
▁yield	-5022
esecake	-5023
ference	-5024
holders	-5025
ibility	-5026
ression	-5027
tenance	-5028
▁August	-5029
▁Austri	-5030
▁Bureau	-5031
▁Either	-5032
▁Robert	-5033
▁Virgin	-5034
▁accord	-5035
▁agents	-5036
▁altern	-5037
▁annual	-5038
▁arrest	-5039
▁attain	-5040
▁camera	-5041
▁career	-5042
▁caught	-5043
▁closed	-5044
▁comput	-5045
▁cotton	-5046
▁critic	-5047
▁dumped	-5048
▁eating	-5049
▁energy	-5050
▁events	-5051
▁exceed	-5052
▁formal	-5053
▁guilty	-5054
▁highly	-5055
▁ideals	-5056
▁insist	-5057
▁insurg	-5058
▁invoke	-5059
▁kicked	-5060
▁length	-5061
▁lesson	-5062
▁market	-5063
▁merely	-5064
▁noodle	-5065
▁occupy	-5066
▁paying	-5067
▁pocket	-5068
▁prefer	-5069
▁raised	-5070
▁recall	-5071
▁regret	-5072
▁remark	-5073
▁retire	-5074
▁safely	-5075
▁select	-5076
▁sevent	-5077
▁sought	-5078
▁stable	-5079
▁subway	-5080
▁theory	-5081
▁urgent	-5082
▁utmost	-5083
▁vision	-5084
allenger	-5085
cription	-5086
ropriate	-5087
▁Boutros	-5088
▁Central	-5089
▁Cheroke	-5090
▁Chicago	-5091
▁Magistr	-5092
▁Remoray	-5093
▁Spanish	-5094
▁Without	-5095
▁ability	-5096
▁abstain	-5097
▁applied	-5098
▁assumed	-5099
▁bearing	-5100
▁capable	-5101
▁chicken	-5102
▁consist	-5103
▁consult	-5104
▁deserve	-5105
▁dressed	-5106
▁entered	-5107
▁flowers	-5108
▁garbage	-5109
▁grounds	-5110
▁herself	-5111
▁inherit	-5112
▁injured	-5113
▁involve	-5114
▁kicking	-5115
▁killing	-5116
▁knowing	-5117
▁leather	-5118
▁liberal	-5119
▁matters	-5120
▁methods	-5121
▁moments	-5122
▁notwith	-5123
▁nuclear	-5124
▁orderly	-5125
▁perhaps	-5126
▁plastic	-5127
▁project	-5128
▁promote	-5129
▁pursued	-5130
▁quickly	-5131
▁realise	-5132
▁revenue	-5133
▁science	-5134
▁secrets	-5135
▁settled	-5136
▁shuttle	-5137
▁similar	-5138
▁staying	-5139
▁uniform	-5140
▁western	-5141
▁Atlantic	-5142
▁Missouri	-5143
▁Saturday	-5144
▁affected	-5145
▁annoying	-5146
▁answered	-5147
▁disperse	-5148
▁district	-5149
▁division	-5150
▁earrings	-5151
▁employed	-5152
▁endeavor	-5153
▁enjoying	-5154
▁exciting	-5155
▁faithful	-5156
▁handling	-5157
▁informed	-5158
▁inspired	-5159
▁instance	-5160
▁memorial	-5161
▁messages	-5162
▁moreover	-5163
▁neighbor	-5164
▁offenses	-5165
▁pleasure	-5166
▁possibly	-5167
▁precious	-5168
▁pressure	-5169
▁promised	-5170
▁reciproc	-5171
▁religion	-5172
▁rendered	-5173
▁resident	-5174
▁separate	-5175
▁struggle	-5176
▁suitable	-5177
▁sympathy	-5178
▁transfer	-5179
ifications	-5180
▁Dominican	-5181
▁Excellent	-5182
▁Something	-5183
▁abandoned	-5184
▁acknowled	-5185
▁annulment	-5186
▁assurance	-5187
▁convinced	-5188
▁delivered	-5189
▁earnestly	-5190
▁efficient	-5191
▁expedient	-5192
▁furnished	-5193
▁gratitude	-5194
▁immediate	-5195
▁impartial	-5196
▁insurance	-5197
▁naturally	-5198
▁positions	-5199
▁preparing	-5200
▁presented	-5201
▁pursuance	-5202
▁reduction	-5203
▁rejoicing	-5204
▁remaining	-5205
▁resources	-5206
▁signature	-5207
▁submitted	-5208
▁suggested	-5209
▁tranquill	-5210
▁California	-5211
▁Challenger	-5212
▁assurances	-5213
▁cheesecake	-5214
▁commanding	-5215
▁concerning	-5216
▁conference	-5217
▁constantly	-5218
▁deliberate	-5219
▁discharged	-5220
▁disgusting	-5221
▁exigencies	-5222
▁expression	-5223
▁impressive	-5224
▁industries	-5225
▁instrument	-5226
▁limitation	-5227
▁prescribed	-5228
▁protecting	-5229
▁reciprocal	-5230
▁respecting	-5231
▁revolution	-5232
▁ridiculous	-5233
▁sandwiches	-5234
▁sentiments	-5235
▁successful	-5236
▁Departments	-5237
▁Republicans	-5238
▁accompanied	-5239
▁agriculture	-5240
▁combination	-5241
▁complicated	-5242
▁continuance	-5243
▁convictions	-5244
▁entertained	-5245
▁generations	-5246
▁inheritance	-5247
▁maintenance	-5248
▁realization	-5249
▁unfortunate	-5250
▁agricultural	-5251
▁apprehension	-5252
▁considerable	-5253
▁contemplated	-5254
▁embarrassing	-5255
▁preservation	-5256
▁investigation	-5257
▁uncomfortable	-5258
▁notwithstanding	-5259
',	-5260
-1	-5261
.	-5262
18	-5263
7,	-5264
?	-5265
CK	-5266
EY	-5267
ND	-5268
RI	-5269
fl	-5270
fr	-5271
gi	-5272
gs	-5273
sl	-5274
:30	-5275
ILT	-5276
ISH	-5277
Why	-5278
add	-5279
arv	-5280
asy	-5281
ato	-5282
bar	-5283
bel	-5284
bol	-5285
cue	-5286
een	-5287
gar	-5288
hah	-5289
ham	-5290
ids	-5291
ket	-5292
ldi	-5293
loe	-5294
old	-5295
oof	-5296
oop	-5297
pes	-5298
til	-5299
tin	-5300
uct	-5301
ugs	-5302
ulu	-5303
ums	-5304
whe	-5305
woo	-5306
▁$5	-5307
▁--	-5308
▁..	-5309
▁2,	-5310
▁26	-5311
▁Ba	-5312
▁Gl	-5313
▁Hm	-5314
▁Im	-5315
▁MY	-5316
▁Ne	-5317
▁OF	-5318
▁PR	-5319
▁ce	-5320
▁ep	-5321
▁er	-5322
▁ig	-5323
▁ve	-5324
Amer	-5325
abil	-5326
aret	-5327
auce	-5328
aven	-5329
bear	-5330
burg	-5331
chan	-5332
eady	-5333
ella	-5334
elly	-5335
emon	-5336
eria	-5337
fare	-5338
fast	-5339
iber	-5340
icky	-5341
iers	-5342
iety	-5343
imet	-5344
inqu	-5345
lled	-5346
misp	-5347
miss	-5348
nage	-5349
odes	-5350
onda	-5351
real	-5352
rity	-5353
umer	-5354
viet	-5355
when	-5356
wife	-5357
work	-5358
▁190	-5359
▁AND	-5360
▁ATM	-5361
▁Att	-5362
▁Far	-5363
▁Fun	-5364
▁HAY	-5365
▁Ham	-5366
▁Him	-5367
▁Hot	-5368
▁Jam	-5369
▁Lat	-5370
▁MAD	-5371
▁Mem	-5372
▁Per	-5373
▁Pet	-5374
▁Pre	-5375
▁Res	-5376
▁Ros	-5377
▁Sec	-5378
▁Sid	-5379
▁Sit	-5380
▁Sur	-5381
▁Urs	-5382
▁Wha	-5383
▁ahh	-5384
▁aim	-5385
▁ain	-5386
▁ang	-5387
▁aug	-5388
▁bee	-5389
▁bod	-5390
▁bou	-5391
▁dig	-5392
▁dil	-5393
▁dru	-5394
▁fil	-5395
▁fis	-5396
▁glo	-5397
▁gum	-5398
▁les	-5399
▁lib	-5400
▁low	-5401
▁mot	-5402
▁omn	-5403
▁pal	-5404
▁pet	-5405
▁rig	-5406
▁spo	-5407
▁tab	-5408
▁toy	-5409
▁tre	-5410
▁ver	-5411
ILTON	-5412
There	-5413
acing	-5414
after	-5415
alled	-5416
archy	-5417
arely	-5418
aters	-5419
atory	-5420
board	-5421
cient	-5422
clude	-5423
ctors	-5424
cture	-5425
dered	-5426
ening	-5427
ented	-5428
ernal	-5429
erson	-5430
eties	-5431
guard	-5432
ibule	-5433
ighth	-5434
inued	-5435
irmed	-5436
iture	-5437
mones	-5438
omach	-5439
onder	-5440
onven	-5441
osity	-5442
ranny	-5443
rency	-5444
stick	-5445
terus	-5446
thern	-5447
third	-5448
throw	-5449
ticip	-5450
ugees	-5451
uries	-5452
usual	-5453
would	-5454
▁....	-5455
▁Bern	-5456
▁Char	-5457
▁Ezel	-5458
▁FISH	-5459
▁Feel	-5460
▁Greg	-5461
▁Hope	-5462
▁Isab	-5463
▁Joke	-5464
▁Know	-5465
▁Kyle	-5466
▁Lord	-5467
▁Many	-5468
▁Only	-5469
▁Post	-5470
▁Shut	-5471
▁Stay	-5472
▁Tree	-5473
▁Tues	-5474
▁anti	-5475
▁arch	-5476
▁argu	-5477
▁bags	-5478
▁bars	-5479
▁beat	-5480
▁blew	-5481
▁butt	-5482
▁cher	-5483
▁coal	-5484
▁cold	-5485
▁cult	-5486
▁dare	-5487
▁defe	-5488
▁docu	-5489
▁draw	-5490
▁east	-5491
▁embr	-5492
▁fant	-5493
▁gain	-5494
▁grav	-5495
▁groc	-5496
▁hats	-5497
▁hers	-5498
▁igno	-5499
▁intr	-5500
▁iron	-5501
▁jail	-5502
▁jerk	-5503
▁king	-5504
▁kitc	-5505
▁lawy	-5506
▁loan	-5507
▁moon	-5508
▁noon	-5509
▁phys	-5510
▁pill	-5511
▁pink	-5512
▁pupp	-5513
▁race	-5514
▁sake	-5515
▁sale	-5516
▁sees	-5517
▁sexy	-5518
▁shoe	-5519
▁siss	-5520
▁slow	-5521
▁slut	-5522
▁soap	-5523
▁soft	-5524
▁soil	-5525
▁sple	-5526
▁stip	-5527
▁subl	-5528
▁suds	-5529
▁thor	-5530
▁vast	-5531
▁vide	-5532
▁weap	-5533
Angela	-5534
aching	-5535
bation	-5536
ceived	-5537
cludes	-5538
earest	-5539
ennial	-5540
ension	-5541
father	-5542
imited	-5543
ingers	-5544
isible	-5545
nition	-5546
oining	-5547
ooting	-5548
ptions	-5549
riving	-5550
second	-5551
veland	-5552
▁1848,	-5553
▁1898,	-5554
▁Bobby	-5555
▁Brown	-5556
▁Chloe	-5557
▁Chuck	-5558
▁Civil	-5559
▁Danny	-5560
▁Distr	-5561
▁Freed	-5562
▁GRANT	-5563
▁Grant	-5564
▁Heldi	-5565
▁Italy	-5566
▁Jason	-5567
▁Jenny	-5568
▁Krist	-5569
▁Later	-5570
▁Magic	-5571
▁Minsk	-5572
▁Mount	-5573
▁Nancy	-5574
▁Night	-5575
▁Pizza	-5576
▁Queen	-5577
▁Trist	-5578
▁Uncle	-5579
▁acted	-5580
▁advis	-5581
▁aided	-5582
▁alarm	-5583
▁alleg	-5584
▁allow	-5585
▁arbit	-5586
▁blame	-5587
▁bunny	-5588
▁canoe	-5589
▁cards	-5590
▁champ	-5591
▁cheap	-5592
▁chute	-5593
▁crack	-5594
▁cruel	-5595
▁daddy	-5596
▁daily	-5597
▁dated	-5598
▁deeds	-5599
▁draft	-5600
▁fires	-5601
▁fixed	-5602
▁fruit	-5603
▁gimme	-5604
▁glass	-5605
▁glory	-5606
▁grave	-5607
▁greet	-5608
▁hates	-5609
▁hurts	-5610
▁ideas	-5611
▁inapp	-5612
▁invas	-5613
▁lemon	-5614
▁loose	-5615
▁lucky	-5616
▁magic	-5617
▁mispr	-5618
▁moral	-5619
▁mouse	-5620
▁occur	-5621
▁pages	-5622
▁pizza	-5623
▁plate	-5624
▁poker	-5625
▁proof	-5626
▁quant	-5627
▁quiet	-5628
▁rates	-5629
▁rebel	-5630
▁rival	-5631
▁salad	-5632
▁sauce	-5633
▁scary	-5634
▁sched	-5635
▁slept	-5636
▁split	-5637
▁stood	-5638
▁sweep	-5639
▁threw	-5640
▁tight	-5641
▁total	-5642
▁twins	-5643
▁unity	-5644
▁wages	-5645
▁waste	-5646
General	-5647
clusive	-5648
imeters	-5649
ossible	-5650
unction	-5651
unities	-5652
▁Canada	-5653
▁Church	-5654
▁Commun	-5655
▁Divine	-5656
▁Empire	-5657
▁Having	-5658
▁Houses	-5659
▁Intern	-5660
▁Knicks	-5661
▁Rogers	-5662
▁Soviet	-5663
▁Stalin	-5664
▁Steven	-5665
▁Ursula	-5666
▁abodes	-5667
▁abroad	-5668
▁accent	-5669
▁access	-5670
▁actors	-5671
▁assure	-5672
▁bodies	-5673
▁boring	-5674
▁bother	-5675
▁bright	-5676
▁bucket	-5677
▁center	-5678
▁charge	-5679
▁colors	-5680
▁comple	-5681
▁consec	-5682
▁consum	-5683
▁contra	-5684
▁contro	-5685
▁create	-5686
▁damnit	-5687
▁device	-5688
▁disapp	-5689
▁divide	-5690
▁divine	-5691
▁easily	-5692
▁excess	-5693
▁excite	-5694
▁flight	-5695
▁fortun	-5696
▁harbor	-5697
▁heaven	-5698
▁hemisp	-5699
▁histor	-5700
▁hooker	-5701
▁labors	-5702
▁losing	-5703
▁lovers	-5704
▁mechan	-5705
▁narrow	-5706
▁ninete	-5707
▁ninety	-5708
▁nipple	-5709
▁nothin	-5710
▁orders	-5711
▁pieces	-5712
▁police	-5713
▁preced	-5714
▁prices	-5715
▁promot	-5716
▁proved	-5717
▁reduce	-5718
▁region	-5719
▁reluct	-5720
▁requis	-5721
▁rescue	-5722
▁salmon	-5723
▁scient	-5724
▁search	-5725
▁social	-5726
▁squeez	-5727
▁sucked	-5728
▁symbol	-5729
▁talkin	-5730
▁target	-5731
▁tasted	-5732
▁toilet	-5733
▁transl	-5734
▁twelve	-5735
▁unable	-5736
▁undert	-5737
▁uterus	-5738
▁virgin	-5739
▁waiter	-5740
▁wholly	-5741
HAMILTON	-5742
izations	-5743
ontinued	-5744
▁Anybody	-5745
▁Cabinet	-5746
▁Grandma	-5747
▁Islands	-5748
▁MADISON	-5749
▁Tonight	-5750
▁Treeger	-5751
▁Tuesday	-5752
▁anticip	-5753
▁anxious	-5754
▁assembl	-5755
▁attacks	-5756
▁bastard	-5757
▁belongs	-5758
▁benefit	-5759
▁burning	-5760
▁cancell	-5761
▁candles	-5762
▁charged	-5763
▁chiefly	-5764
▁commend	-5765
▁confere	-5766
▁conspir	-5767
▁contact	-5768
▁cordial	-5769
▁counsel	-5770
▁covered	-5771
▁dealing	-5772
▁dentist	-5773
▁deposit	-5774
▁derived	-5775
▁divided	-5776
▁doctors	-5777
▁effects	-5778
▁eternal	-5779
▁fortune	-5780
▁goodbye	-5781
▁granted	-5782
▁growing	-5783
▁healthy	-5784
▁hitting	-5785
▁kitchen	-5786
▁lawless	-5787
▁lesbian	-5788
▁library	-5789
▁opening	-5790
▁picking	-5791
▁planned	-5792
▁possess	-5793
▁pretend	-5794
▁protest	-5795
▁quality	-5796
▁reduced	-5797
▁rejoice	-5798
▁remains	-5799
▁resolve	-5800
▁resting	-5801
▁routine	-5802
▁schools	-5803
▁section	-5804
▁selling	-5805
▁somehow	-5806
▁sources	-5807
▁stomach	-5808
▁student	-5809
▁thereto	-5810
▁tonnage	-5811
▁trusted	-5812
▁typical	-5813
▁tyranny	-5814
▁unusual	-5815
▁various	-5816
▁whoever	-5817
▁written	-5818
hetically	-5819
▁Anything	-5820
▁Attorney	-5821
▁District	-5822
▁Isabella	-5823
▁National	-5824
▁Senators	-5825
▁Virginia	-5826
▁addition	-5827
▁adoption	-5828
▁apparent	-5829
▁becoming	-5830
▁benefits	-5831
▁computer	-5832
▁convened	-5833
▁critical	-5834
▁currency	-5835
▁delivery	-5836
▁disaster	-5837
▁divorced	-5838
▁drinking	-5839
▁energies	-5840
▁enforced	-5841
▁frontier	-5842
▁inconven	-5843
▁judicial	-5844
▁language	-5845
▁lemonade	-5846
▁manifest	-5847
▁material	-5848
▁negative	-5849
▁northern	-5850
▁ordinary	-5851
▁partisan	-5852
▁patience	-5853
▁politics	-5854
▁positive	-5855
▁princess	-5856
▁promoted	-5857
▁quitting	-5858
▁reconcil	-5859
▁regarded	-5860
▁requires	-5861
▁revision	-5862
▁sandwich	-5863
▁specific	-5864
▁subjects	-5865
▁supplies	-5866
▁teaching	-5867
▁tendency	-5868
▁thorough	-5869
▁touching	-5870
▁treasons	-5871
▁Cleveland	-5872
▁Professor	-5873
▁Therefore	-5874
▁adjoining	-5875
▁affection	-5876
▁amendment	-5877
▁appearing	-5878
▁attending	-5879
▁attracted	-5880
▁belonging	-5881
▁coalition	-5882
▁commenced	-5883
▁connected	-5884
▁daughters	-5885
▁dedicated	-5886
▁destroyed	-5887
▁dominions	-5888
▁excepting	-5889
▁exclusive	-5890
▁existence	-5891
▁expecting	-5892
▁expensive	-5893
▁favourite	-5894
▁forbidden	-5895
▁governors	-5896
▁guarantee	-5897
▁hereafter	-5898
▁honeymoon	-5899
▁interfere	-5900
▁mentioned	-5901
▁obedience	-5902
▁potential	-5903
▁privilege	-5904
▁professor	-5905
▁qualified	-5906
▁regiments	-5907
▁responded	-5908
▁reverence	-5909
▁sentiment	-5910
▁successor	-5911
▁switching	-5912
▁terminate	-5913
▁terrorist	-5914
▁vestibule	-5915
▁Apparently	-5916
▁Magistrate	-5917
▁Providence	-5918
▁additional	-5919
▁apartments	-5920
▁committing	-5921
▁contribute	-5922
▁conviction	-5923
▁determined	-5924
▁diplomatic	-5925
▁foundation	-5926
▁hemisphere	-5927
▁heretofore	-5928
▁impossible	-5929
▁impression	-5930
▁industrial	-5931
▁insurgents	-5932
▁localities	-5933
▁management	-5934
▁omnipotent	-5935
▁originated	-5936
▁pretending	-5937
▁preventing	-5938
▁privileges	-5939
▁prosecuted	-5940
▁recognized	-5941
▁republican	-5942
▁supporting	-5943
▁sympathies	-5944
▁television	-5945
▁volunteers	-5946
▁Americanism	-5947
▁Governments	-5948
▁approbation	-5949
▁appropriate	-5950
▁centimeters	-5951
▁competition	-5952
▁considering	-5953
▁development	-5954
▁fundamental	-5955
▁intelligent	-5956
▁maintaining	-5957
▁necessarily	-5958
▁neighboring	-5959
▁provisional	-5960
▁recognition	-5961
▁represented	-5962
▁technically	-5963
▁consequences	-5964
▁deliberately	-5965
▁distribution	-5966
▁establishing	-5967
▁interference	-5968
▁propositions	-5969
▁respectfully	-5970
▁tranquillity	-5971
▁inappropriate	-5972
▁misunderstood	-5973
▁righteousness	-5974
▁correspondence	-5975
!'	-5976
!	-5977
),	-5978
0.	-5979
1,	-5980
17	-5981
2.	-5982
;"	-5983
CE	-5984
Hi	-5985
ID	-5986
Is	-5987
OV	-5988
RE	-5989
SE	-5990
UR	-5991
bb	-5992
gy	-5993
ws	-5994
▁—	-5995
▁”	-5996
00,	-5997
ARD	-5998
Kin	-5999
She	-6000
Who	-6001
alk	-6002
ays	-6003
azz	-6004
bec	-6005
bed	-6006
cer	-6007
col	-6008
cto	-6009
cts	-6010
dom	-6011
dum	-6012
eck	-6013
edl	-6014
han	-6015
ili	-6016
ims	-6017
ipe	-6018
isc	-6019
kin	-6020
nty	-6021
obb	-6022
ode	-6023
ogy	-6024
oln	-6025
osc	-6026
oul	-6027
pot	-6028
rel	-6029
ria	-6030
six	-6031
ste	-6032
sth	-6033
thy	-6034
upe	-6035
ups	-6036
uts	-6037
▁$2	-6038
▁$7	-6039
▁16	-6040
▁35	-6041
▁40	-6042
▁50	-6043
▁6,	-6044
▁7,	-6045
▁8.	-6046
▁Mm	-6047
▁Na	-6048
▁Su	-6049
▁Sw	-6050
▁Te	-6051
▁ge	-6052
:00.	-6053
JOHN	-6054
OVER	-6055
This	-6056
Whoa	-6057
acre	-6058
adal	-6059
ador	-6060
adow	-6061
ager	-6062
agne	-6063
alls	-6064
alse	-6065
ault	-6066
aybe	-6067
back	-6068
bles	-6069
cend	-6070
ctly	-6071
disp	-6072
eads	-6073
ears	-6074
ects	-6075
enes	-6076
eras	-6077
ford	-6078
four	-6079
hand	-6080
hatt	-6081
hhhh	-6082
host	-6083
hour	-6084
iana	-6085
icit	-6086
itty	-6087
izes	-6088
lish	-6089
made	-6090
mond	-6091
mont	-6092
ners	-6093
ntil	-6094
ocus	-6095
oles	-6096
omed	-6097
oned	-6098
ones	-6099
ores	-6100
ouis	-6101
owns	-6102
plan	-6103
race	-6104
rant	-6105
rent	-6106
rrrr	-6107
ruba	-6108
some	-6109
ties	-6110
uate	-6111
uded	-6112
uine	-6113
ulty	-6114
unno	-6115
urse	-6116
utal	-6117
vene	-6118
well	-6119
whel	-6120
your	-6121
▁10,	-6122
▁100	-6123
▁180	-6124
▁181	-6125
▁182	-6126
▁183	-6127
▁188	-6128
▁19,	-6129
▁40,	-6130
▁Ace	-6131
▁Afr	-6132
▁Agr	-6133
▁Amb	-6134
▁Arm	-6135
▁Beg	-6136
▁Boy	-6137
▁CLE	-6138
▁Chi	-6139
▁Est	-6140
▁Gee	-6141
▁Gro	-6142
▁Guy	-6143
▁Ice	-6144
▁Jim	-6145
▁Ken	-6146
▁Kip	-6147
▁Lee	-6148
▁Mad	-6149
▁Maj	-6150
▁Mat	-6151
▁Mil	-6152
▁Out	-6153
▁Oww	-6154
▁Sar	-6155
▁Val	-6156
▁Zel	-6157
▁abr	-6158
▁ast	-6159
▁bal	-6160
▁bow	-6161
▁cha	-6162
▁egg	-6163
▁fem	-6164
▁gor	-6165
▁hom	-6166
▁lap	-6167
▁las	-6168
▁lic	-6169
▁pan	-6170
▁pig	-6171
▁pit	-6172
▁raw	-6173
▁ris	-6174
▁rum	-6175
▁tan	-6176
▁tel	-6177
▁tim	-6178
▁unh	-6179
▁unm	-6180
▁vot	-6181
▁wet	-6182
▁woo	-6183
▁wre	-6184
▁zoo	-6185
5,000	-6186
agree	-6187
ander	-6188
annie	-6189
atoes	-6190
citiz	-6191
ctity	-6192
eable	-6193
eaker	-6194
eanut	-6195
eased	-6196
eding	-6197
eeper	-6198
elior	-6199
ellow	-6200
epsie	-6201
esome	-6202
estim	-6203
field	-6204
ggles	-6205
heart	-6206
heast	-6207
iable	-6208
icent	-6209
ictor	-6210
ignty	-6211
isive	-6212
isons	-6213
itage	-6214
ittal	-6215
mises	-6216
ocean	-6217
ology	-6218
olulu	-6219
order	-6220
ordin	-6221
orpor	-6222
osing	-6223
ously	-6224
owell	-6225
pidly	-6226
ragon	-6227
rific	-6228
rolin	-6229
uable	-6230
umbia	-6231
unior	-6232
urely	-6233
ushed	-6234
usion	-6235
wards	-6236
▁Alex	-6237
▁Ange	-6238
▁Aunt	-6239
▁Back	-6240
▁Bamb	-6241
▁Carl	-6242
▁Cons	-6243
▁Dana	-6244
▁Dani	-6245
▁Dear	-6246
▁Doug	-6247
▁Each	-6248
▁Fore	-6249
▁Fort	-6250
▁Gary	-6251
▁Gene	-6252
▁Gree	-6253
▁Harv	-6254
▁Isth	-6255
▁Jane	-6256
▁Left	-6257
▁Liam	-6258
▁Lily	-6259
▁Linc	-6260
▁Love	-6261
▁Mart	-6262
▁Mill	-6263
▁Mind	-6264
▁Mine	-6265
▁Octo	-6266
▁Oooh	-6267
▁Rock	-6268
▁Vice	-6269
▁Whew	-6270
▁Whoo	-6271
▁Year	-6272
▁bake	-6273
▁beac	-6274
▁beef	-6275
▁beer	-6276
▁bing	-6277
▁bord	-6278
▁bugs	-6279
▁clim	-6280
▁cock	-6281
▁conj	-6282
▁crop	-6283
▁danc	-6284
▁ding	-6285
▁drew	-6286
▁emph	-6287
▁eval	-6288
▁feat	-6289
▁feed	-6290
▁flow	-6291
▁glor	-6292
▁gosh	-6293
▁impl	-6294
▁inev	-6295
▁lamp	-6296
▁legs	-6297
▁masc	-6298
▁monu	-6299
▁muff	-6300
▁nose	-6301
▁pair	-6302
▁park	-6303
▁pear	-6304
▁pion	-6305
▁proc	-6306
▁puzz	-6307
▁rail	-6308
▁rank	-6309
▁saut	-6310
▁sche	-6311
▁scoo	-6312
▁sour	-6313
▁sout	-6314
▁spit	-6315
▁suit	-6316
▁summ	-6317
▁tank	-6318
▁twin	-6319
▁type	-6320
▁vind	-6321
Geller	-6322
Kinley	-6323
VELAND	-6324
airman	-6325
angers	-6326
anship	-6327
arters	-6328
atible	-6329
azines	-6330
egrity	-6331
eighth	-6332
esides	-6333
fetime	-6334
iaries	-6335
iciary	-6336
icious	-6337
igible	-6338
making	-6339
monies	-6340
ndered	-6341
niture	-6342
ogging	-6343
oughke	-6344
owered	-6345
rained	-6346
rating	-6347
reason	-6348
retion	-6349
risten	-6350
selini	-6351
teenth	-6352
umbent	-6353
urning	-6354
▁Aruba	-6355
▁Chile	-6356
▁Congr	-6357
▁Diego	-6358
▁Doesn	-6359
▁Eight	-6360
▁Fight	-6361
▁Heads	-6362
▁Kinda	-6363
▁Looks	-6364
▁Louis	-6365
▁Mayor	-6366
▁Noooo	-6367
▁Seven	-6368
▁Three	-6369
▁Until	-6370
▁Wanna	-6371
▁added	-6372
▁alive	-6373
▁aloof	-6374
▁altar	-6375
▁ample	-6376
▁angry	-6377
▁annex	-6378
▁asser	-6379
▁await	-6380
▁awful	-6381
▁badly	-6382
▁basic	-6383
▁bears	-6384
▁began	-6385
▁boobs	-6386
▁cafet	-6387
▁chann	-6388
▁chipp	-6389
▁click	-6390
▁colon	-6391
▁cramp	-6392
▁dates	-6393
▁dunno	-6394
▁evils	-6395
▁false	-6396
▁fears	-6397
▁fifth	-6398
▁fifty	-6399
▁finds	-6400
▁ghost	-6401
▁giant	-6402
▁grace	-6403
▁hired	-6404
▁horny	-6405
▁hurry	-6406
▁incom	-6407
▁incur	-6408
▁intri	-6409
▁kitty	-6410
▁ladle	-6411
▁lobby	-6412
▁loser	-6413
▁lover	-6414
▁march	-6415
▁meets	-6416
▁merch	-6417
▁mercy	-6418
▁mourn	-6419
▁numer	-6420
▁nurse	-6421
▁ocean	-6422
▁overs	-6423
▁postp	-6424
▁reset	-6425
▁rhyme	-6426
▁river	-6427
▁rolls	-6428
▁shake	-6429
▁shame	-6430
▁shave	-6431
▁shown	-6432
▁snack	-6433
▁sneak	-6434
▁solid	-6435
▁spect	-6436
▁staff	-6437
▁stain	-6438
▁stare	-6439
▁stars	-6440
▁subst	-6441
▁sweat	-6442
▁swing	-6443
▁towel	-6444
▁towns	-6445
▁uncle	-6446
▁video	-6447
▁wheel	-6448
abilize	-6449
achment	-6450
adalupe	-6451
angered	-6452
ception	-6453
ensions	-6454
ielding	-6455
ilitary	-6456
inister	-6457
ipation	-6458
itation	-6459
justice	-6460
oceanic	-6461
ressing	-6462
theless	-6463
verance	-6464
viously	-6465
▁Always	-6466
▁Better	-6467
▁Blaine	-6468
▁Brolin	-6469
▁Coming	-6470
▁Doctor	-6471
▁Except	-6472
▁Farber	-6473
▁Friday	-6474
▁GROVER	-6475
▁Govern	-6476
▁Grover	-6477
▁Kansas	-6478
▁Marcel	-6479
▁Mother	-6480
▁Russia	-6481
▁Second	-6482
▁Secret	-6483
▁Sounds	-6484
▁Speech	-6485
▁Unless	-6486
▁Victor	-6487
▁Zelner	-6488
▁announ	-6489
▁arisen	-6490
▁arming	-6491
▁assert	-6492
▁assign	-6493
▁backup	-6494
▁barbar	-6495
▁barely	-6496
▁basket	-6497
▁blazer	-6498
▁blocks	-6499
▁brutal	-6500
▁buried	-6501
▁caller	-6502
▁cancel	-6503
▁chocol	-6504
▁closer	-6505
▁condem	-6506
▁convey	-6507
▁copies	-6508
▁corpor	-6509
▁courts	-6510
▁damage	-6511
▁deeply	-6512
▁defeat	-6513
▁denied	-6514
▁devout	-6515
▁double	-6516
▁drinks	-6517
▁eighth	-6518
▁engage	-6519
▁fabric	-6520
▁fairly	-6521
▁famous	-6522
▁fiscal	-6523
▁forest	-6524
▁framed	-6525
▁grants	-6526
▁guests	-6527
▁harder	-6528
▁heroic	-6529
▁insane	-6530
▁inspir	-6531
▁instin	-6532
▁judged	-6533
▁lawyer	-6534
▁levels	-6535
▁liable	-6536
▁litter	-6537
▁modern	-6538
▁mostly	-6539
▁nailed	-6540
▁native	-6541
▁nearly	-6542
▁needle	-6543
▁nights	-6544
▁observ	-6545
▁perils	-6546
▁profit	-6547
▁pursue	-6548
▁remedy	-6549
▁remind	-6550
▁remote	-6551
▁repair	-6552
▁repeat	-6553
▁reserv	-6554
▁retain	-6555
▁sacred	-6556
▁scenes	-6557
▁served	-6558
▁shadow	-6559
▁showed	-6560
▁signal	-6561
▁smooth	-6562
▁sooner	-6563
▁sovere	-6564
▁speedy	-6565
▁spoken	-6566
▁sports	-6567
▁states	-6568
▁sticks	-6569
▁stores	-6570
▁strate	-6571
▁strive	-6572
▁sundry	-6573
▁taught	-6574
▁uncond	-6575
▁wishes	-6576
▁worker	-6577
▁worthy	-6578
American	-6579
bearance	-6580
ecessary	-6581
essional	-6582
iculture	-6583
ightened	-6584
ventions	-6585
▁Another	-6586
▁Austria	-6587
▁England	-6588
▁English	-6589
▁Estelle	-6590
▁Harvard	-6591
▁Isthmus	-6592
▁Lincoln	-6593
▁Madison	-6594
▁Majesty	-6595
▁Members	-6596
▁October	-6597
▁Poughke	-6598
▁Regular	-6599
▁Stevens	-6600
▁Sweetie	-6601
▁Western	-6602
▁abiding	-6603
▁airport	-6604
▁amelior	-6605
▁ancient	-6606
▁anxiety	-6607
▁blessed	-6608
▁breasts	-6609
▁briefly	-6610
▁cameras	-6611
▁chances	-6612
▁chasing	-6613
▁cigaret	-6614
▁circles	-6615
▁classes	-6616
▁closing	-6617
▁collect	-6618
▁compact	-6619
▁compens	-6620
▁constit	-6621
▁conting	-6622
▁correct	-6623
▁counter	-6624
▁custody	-6625
▁deepest	-6626
▁depends	-6627
▁destiny	-6628
▁devised	-6629
▁devoted	-6630
▁dignity	-6631
▁dreamed	-6632
▁dropped	-6633
▁dropper	-6634
▁earlier	-6635
▁emotion	-6636
▁enlarge	-6637
▁exchang	-6638
▁falling	-6639
▁feeding	-6640
▁fervent	-6641
▁finance	-6642
▁furnish	-6643
▁genuine	-6644
▁goggles	-6645
▁goofing	-6646
▁harmony	-6647
▁heights	-6648
▁hooking	-6649
▁illegal	-6650
▁induced	-6651
▁initial	-6652
▁intimid	-6653
▁lessons	-6654
▁letters	-6655
▁massage	-6656
▁miracle	-6657
▁nearest	-6658
▁neutral	-6659
▁nipples	-6660
▁noticed	-6661
▁nowhere	-6662
▁objects	-6663
▁observe	-6664
▁offered	-6665
▁painful	-6666
▁partner	-6667
▁patient	-6668
▁payment	-6669
▁pleased	-6670
▁pledged	-6671
▁pledges	-6672
▁produce	-6673
▁propose	-6674
▁psyched	-6675
▁pulling	-6676
▁rapidly	-6677
▁related	-6678
▁relinqu	-6679
▁reorgan	-6680
▁running	-6681
▁screwed	-6682
▁secured	-6683
▁shining	-6684
▁signing	-6685
▁sisters	-6686
▁slavery	-6687
▁sorrows	-6688
▁squeeze	-6689
▁staring	-6690
▁sublime	-6691
▁supplic	-6692
▁testify	-6693
▁touched	-6694
▁towards	-6695
▁univers	-6696
▁wanting	-6697
▁warfare	-6698
▁warrant	-6699
▁weapons	-6700
▁whereby	-6701
▁winning	-6702
▁workers	-6703
▁yelling	-6704
▁zealous	-6705
▁Carolina	-6706
▁Chairman	-6707
▁Columbia	-6708
▁Danielle	-6709
▁Goodacre	-6710
▁Honolulu	-6711
▁McKinley	-6712
▁Montreal	-6713
▁Tomorrow	-6714
▁abetting	-6715
▁activity	-6716
▁assembly	-6717
▁assuring	-6718
▁attained	-6719
▁audience	-6720
▁blockade	-6721
▁boarding	-6722
▁borrowed	-6723
▁boundary	-6724
▁brothers	-6725
▁captured	-6726
▁confront	-6727
▁conquest	-6728
▁contrary	-6729
▁controls	-6730
▁councils	-6731
▁covenant	-6732
▁decrease	-6733
▁defended	-6734
▁definite	-6735
▁designed	-6736
▁directly	-6737
▁director	-6738
▁disagree	-6739
▁dispatch	-6740
▁distance	-6741
▁eminence	-6742
▁enduring	-6743
▁excepted	-6744
▁facility	-6745
▁features	-6746
▁followed	-6747
▁forgiven	-6748
▁freaking	-6749
▁freedmen	-6750
▁geograph	-6751
▁governor	-6752
▁heritage	-6753
▁hormones	-6754
▁imported	-6755
▁includes	-6756
▁incorpor	-6757
▁intimate	-6758
▁invested	-6759
▁kindness	-6760
▁laughing	-6761
▁lifetime	-6762
▁lipstick	-6763
▁meetings	-6764
▁minority	-6765
▁mistaken	-6766
▁mistakes	-6767
▁movement	-6768
▁murdered	-6769
▁narrowed	-6770
▁numerous	-6771
▁outrages	-6772
▁overwhel	-6773
▁physical	-6774
▁pioneers	-6775
▁planning	-6776
▁premises	-6777
▁prospect	-6778
▁proudest	-6779
▁provides	-6780
▁quantity	-6781
▁quarters	-6782
▁rejected	-6783
▁relative	-6784
▁residing	-6785
▁respects	-6786
▁returned	-6787
▁sanctity	-6788
▁schedule	-6789
▁services	-6790
▁solution	-6791
▁specials	-6792
▁stations	-6793
▁stronger	-6794
▁teachers	-6795
▁terrific	-6796
▁ultimate	-6797
▁unreason	-6798
▁vigilant	-6799
▁CLEVELAND	-6800
▁Cherokees	-6801
▁Guadalupe	-6802
▁Judiciary	-6803
▁Louisiana	-6804
▁Mountains	-6805
▁Rosselini	-6806
▁advisable	-6807
▁answering	-6808
▁appealing	-6809
▁apportion	-6810
▁basically	-6811
▁breakfast	-6812
▁cafeteria	-6813
▁civilians	-6814
▁committal	-6815
▁compelled	-6816
▁completed	-6817
▁dangerous	-6818
▁divisions	-6819
▁documents	-6820
▁empowered	-6821
▁enactment	-6822
▁exercised	-6823
▁forgotten	-6824
▁furniture	-6825
▁greatness	-6826
▁impressed	-6827
▁incumbent	-6828
▁indicated	-6829
▁injustice	-6830
▁insistent	-6831
▁integrity	-6832
▁intention	-6833
▁magazines	-6834
▁occasions	-6835
▁offensive	-6836
▁officials	-6837
▁overthrow	-6838
▁peaceable	-6839
▁performed	-6840
▁personnel	-6841
▁principal	-6842
▁principle	-6843
▁procuring	-6844
▁protected	-6845
▁reception	-6846
▁reference	-6847
▁reluctant	-6848
▁requested	-6849
▁requiring	-6850
▁requisite	-6851
▁roommates	-6852
▁safeguard	-6853
▁satisfied	-6854
▁specially	-6855
▁stability	-6856
▁structure	-6857
▁supported	-6858
▁thousands	-6859
▁unlimited	-6860
▁Conference	-6861
▁Convention	-6862
▁allegiance	-6863
▁annexation	-6864
▁applicable	-6865
▁aspiration	-6866
▁attractive	-6867
▁boyfriends	-6868
▁calamities	-6869
▁ceremonies	-6870
▁collection	-6871
▁complement	-6872
▁comprehend	-6873
▁conception	-6874
▁consequent	-6875
▁discretion	-6876
▁efficiency	-6877
▁endangered	-6878
▁excitement	-6879
▁experiment	-6880
▁facilities	-6881
▁inevitable	-6882
▁instituted	-6883
▁introduced	-6884
▁nineteenth	-6885
▁officially	-6886
▁proceeding	-6887
▁proportion	-6888
▁remarkable	-6889
▁resistance	-6890
▁submission	-6891
▁suggestion	-6892
▁thoughtful	-6893
▁understood	-6894
▁yourselves	-6895
pothetically	-6896
▁Agriculture	-6897
▁Territorial	-6898
▁Territories	-6899
▁achievement	-6900
▁anticipated	-6901
▁apprehended	-6902
▁approaching	-6903
▁arrangement	-6904
▁assemblages	-6905
▁concentrate	-6906
▁contemplate	-6907
▁conventions	-6908
▁cooperating	-6909
▁countenance	-6910
▁declaration	-6911
▁description	-6912
▁differences	-6913
▁distinction	-6914
▁encouraging	-6915
▁endeavoring	-6916
▁enlightened	-6917
▁expressions	-6918
▁forbearance	-6919
▁fulfillment	-6920
▁hostilities	-6921
▁humiliation	-6922
▁legislative	-6923
▁manufacture	-6924
▁permanently	-6925
▁possibility	-6926
▁proposition	-6927
▁reciprocity	-6928
▁territories	-6929
▁threatening	-6930
▁unnecessary	-6931
▁Poughkeepsie	-6932
▁interoceanic	-6933
▁neighborhood	-6934
▁nevertheless	-6935
▁obstructions	-6936
▁professional	-6937
▁strengthened	-6938
▁embarrassment	-6939
▁entertainment	-6940
▁organizations	-6941
▁precautionary	-6942
▁Administration	-6943
▁considerations	-6944
▁discriminating	-6945
▁Congratulations	-6946
▁congratulations	-6947
▁recommendations	-6948
!-	-6949
!?	-6950
,	-6951
1.	-6952
43	-6953
9.	-6954
AT	-6955
Al	-6956
Do	-6957
Ex	-6958
Go	-6959
Jo	-6960
LI	-6961
LN	-6962
OE	-6963
OU	-6964
On	-6965
To	-6966
ka	-6967
ky	-6968
mo	-6969
xy	-6970
!	-6971
▁!	-6972
▁&	-6973
▁“	-6974
?!"	-6975
But	-6976
FOR	-6977
Joe	-6978
Nam	-6979
Ohh	-6980
Ooh	-6981
ROE	-6982
Rea	-6983
Wow	-6984
ala	-6985
ali	-6986
amy	-6987
arp	-6988
ata	-6989
atm	-6990
bal	-6991
bey	-6992
bla	-6993
def	-6994
din	-6995
eam	-6996
ecl	-6997
eem	-6998
eer	-6999
MAN	-7000
eff	-7001
erc	-7002
esh	-7003
ett	-7004
exp	-7005
fle	-7006
gei	-7007
gia	-7008
gie	-7009
hia	-7010
hie	-7011
hor	-7012
iad	-7013
ila	-7014
imm	-7015
imp	-7016
ira	-7017
irl	-7018
itz	-7019
loy	-7020
mmm	-7021
nia	-7022
nin	-7023
olk	-7024
oma	-7025
ooh	-7026
ooz	-7027
ora	-7028
rac	-7029
rrr	-7030
rup	-7031
sey	-7032
str	-7033
tra	-7034
ull	-7035
vas	-7036
vin	-7037
vol	-7038
xim	-7039
yes	-7040
!!	-7041
▁1,	-7042
▁14	-7043
▁22	-7044
▁24	-7045
▁28	-7046
▁4,	-7047
▁45	-7048
▁64	-7049
▁Ag	-7050
▁Ed	-7051
▁Es	-7052
▁Ev	-7053
▁FR	-7054
▁GO	-7055
▁II	-7056
▁Jr	-7057
▁La	-7058
▁OH	-7059
▁Ob	-7060
▁Oy	-7061
▁PI	-7062
▁Rh	-7063
▁Sl	-7064
▁Ta	-7065
▁Us	-7066
▁Wy	-7067
▁ma	-7068
▁vi	-7069
▁vo	-7070
▁yo	-7071
'...	-7072
000.	-7073
ESID	-7074
Joey	-7075
LNEY	-7076
They	-7077
VELT	-7078
acec	-7079
acif	-7080
addy	-7081
akin	-7082
alph	-7083
alty	-7084
anda	-7085
anim	-7086
aron	-7087
aroo	-7088
assy	-7089
asty	-7090
atie	-7091
atre	-7092
bies	-7093
bout	-7094
dens	-7095
eeen	-7096
eped	-7097
ette	-7098
etts	-7099
down	-7100
ghed	-7101
gonn	-7102
greg	-7103
hent	-7104
idal	-7105
ieth	-7106
illo	-7107
ilst	-7108
imal	-7109
imin	-7110
inic	-7111
ioni	-7112
iser	-7113
isis	-7114
ites	-7115
laim	-7116
lers	-7117
lord	-7118
lsea	-7119
lted	-7120
lyss	-7121
macy	-7122
mill	-7123
ndor	-7124
nger	-7125
olen	-7126
oman	-7127
onst	-7128
oots	-7129
orse	-7130
otic	-7131
ouch	-7132
oust	-7133
oute	-7134
perm	-7135
plex	-7136
rase	-7137
rowd	-7138
stop	-7139
tery	-7140
test	-7141
tics	-7142
ubby	-7143
ucks	-7144
udes	-7145
uild	-7146
ulse	-7147
uman	-7148
used	-7149
usse	-7150
uted	-7151
uten	-7152
vels	-7153
word	-7154
▁$1,	-7155
▁178	-7156
▁179	-7157
▁300	-7158
▁500	-7159
▁Amy	-7160
▁Ask	-7161
▁Bap	-7162
▁Bas	-7163
▁Bat	-7164
▁Bro	-7165
▁Cel	-7166
▁Com	-7167
▁Del	-7168
▁Dev	-7169
▁Dir	-7170
▁Ehh	-7171
▁Fin	-7172
▁Fol	-7173
▁Hel	-7174
▁Hor	-7175
▁Ill	-7176
▁Its	-7177
▁Jew	-7178
▁Lad	-7179
▁Lau	-7180
▁Lea	-7181
▁Leg	-7182
▁Los	-7183
▁MON	-7184
▁McD	-7185
▁Mid	-7186
▁Put	-7187
▁Ray	-7188
▁Ref	-7189
▁Sch	-7190
▁Sir	-7191
▁Sop	-7192
▁Try	-7193
▁adm	-7194
▁ank	-7195
▁asp	-7196
▁avo	-7197
▁bic	-7198
▁bid	-7199
LIN	-7200
dds	-7201
Stop	-7202
▁$2,	-7203
▁27.	-7204
▁bom	-7205
▁bon	-7206
▁bot	-7207
▁bub	-7208
▁cli	-7209
▁cru	-7210
▁dar	-7211
▁dia	-7212
▁enc	-7213
▁esc	-7214
▁flu	-7215
▁gas	-7216
▁jet	-7217
▁lag	-7218
▁lam	-7219
▁lif	-7220
▁loc	-7221
▁lod	-7222
▁mix	-7223
▁mum	-7224
▁nic	-7225
▁oil	-7226
▁ped	-7227
▁rap	-7228
▁row	-7229
▁shy	-7230
▁sid	-7231
▁smo	-7232
▁tad	-7233
▁tin	-7234
▁tit	-7235
▁uhh	-7236
▁uns	-7237
▁unw	-7238
▁uny	-7239
▁vic	-7240
▁wax	-7241
▁wid	-7242
▁wig	-7243
▁wra	-7244
▁yay	-7245
CHARD	-7246
Hello	-7247
abled	-7248
achus	-7249
acked	-7250
adelp	-7251
aired	-7252
anies	-7253
apers	-7254
apsed	-7255
arden	-7256
arric	-7257
assie	-7258
bling	-7259
chick	-7260
child	-7261
cible	-7262
cibly	-7263
cript	-7264
eared	-7265
eless	-7266
erves	-7267
ervix	-7268
ethon	-7269
first	-7270
forms	-7271
geous	-7272
gging	-7273
gonne	-7274
house	-7275
iadic	-7276
icion	-7277
icity	-7278
icken	-7279
ierce	-7280
ifies	-7281
igned	-7282
ingle	-7283
irsty	-7284
isper	-7285
istic	-7286
ively	-7287
odore	-7288
ograp	-7289
ongue	-7290
ortal	-7291
orter	-7292
oster	-7293
otous	-7294
ounce	-7295
overy	-7296
pants	-7297
pping	-7298
quirt	-7299
OOSE	-7300
▁Teh	-7301
ephan	-7302
inois	-7303
maybe	-7304
reeze	-7305
rison	-7306
rotch	-7307
stein	-7308
suing	-7309
thews	-7310
ticle	-7311
uents	-7312
urbed	-7313
using	-7314
usive	-7315
▁$500	-7316
▁Adam	-7317
▁Ball	-7318
▁Bedl	-7319
▁Biol	-7320
▁Bird	-7321
▁Bond	-7322
▁Bugs	-7323
▁Burn	-7324
▁Calm	-7325
▁Chan	-7326
▁Cool	-7327
▁Cups	-7328
▁Decl	-7329
▁Didn	-7330
▁Easy	-7331
▁Erin	-7332
▁Ewww	-7333
▁Ford	-7334
▁Gell	-7335
▁Hamm	-7336
▁Heck	-7337
▁Help	-7338
▁JOHN	-7339
▁Jeff	-7340
▁Kash	-7341
▁Luck	-7342
▁Mass	-7343
▁Much	-7344
▁Nana	-7345
▁Next	-7346
▁Nine	-7347
▁Ober	-7348
▁Once	-7349
▁Pass	-7350
▁Pick	-7351
▁Sand	-7352
▁Save	-7353
▁Scot	-7354
▁Sing	-7355
▁Tenn	-7356
▁Thur	-7357
▁Ugly	-7358
▁Varr	-7359
▁Want	-7360
▁ages	-7361
▁angu	-7362
▁arts	-7363
▁aunt	-7364
▁bann	-7365
▁bene	-7366
▁boom	-7367
▁bowl	-7368
▁bust	-7369
▁cake	-7370
▁cate	-7371
▁cess	-7372
▁chop	-7373
▁coma	-7374
▁corn	-7375
▁crab	-7376
▁crus	-7377
▁curi	-7378
▁cush	-7379
▁dece	-7380
▁deny	-7381
▁dial	-7382
▁diss	-7383
▁dogs	-7384
▁ears	-7385
▁envy	-7386
▁exha	-7387
▁exit	-7388
▁file	-7389
▁film	-7390
▁flaw	-7391
▁flea	-7392
▁flip	-7393
▁gang	-7394
▁grie	-7395
▁heat	-7396
▁hint	-7397
▁hous	-7398
▁incl	-7399
▁Gali	-7400
▁data	-7401
▁gala	-7402
▁jour	-7403
▁kang	-7404
▁lets	-7405
▁lied	-7406
▁lips	-7407
▁liqu	-7408
▁mini	-7409
▁moms	-7410
▁mult	-7411
▁neat	-7412
▁nurs	-7413
▁oatm	-7414
▁obey	-7415
▁oboe	-7416
▁odds	-7417
▁outl	-7418
▁owes	-7419
▁pale	-7420
▁panc	-7421
▁poet	-7422
▁pong	-7423
▁prob	-7424
▁publ	-7425
▁puck	-7426
▁rese	-7427
▁role	-7428
▁rude	-7429
▁sail	-7430
▁sits	-7431
▁slip	-7432
▁sock	-7433
▁stir	-7434
▁stor	-7435
▁sums	-7436
▁tile	-7437
▁toes	-7438
▁tons	-7439
▁ugly	-7440
▁vary	-7441
▁vase	-7442
▁wars	-7443
▁wash	-7444
▁wave	-7445
▁wuss	-7446
▁yore	-7447
!!!!!!	-7448
Excuse	-7449
Really	-7450
active	-7451
adillo	-7452
agraph	-7453
aments	-7454
andise	-7455
arging	-7456
assion	-7457
before	-7458
celona	-7459
ecture	-7460
emnity	-7461
erving	-7462
estion	-7463
fourth	-7464
ground	-7465
guided	-7466
houses	-7467
iberty	-7468
iculty	-7469
ieties	-7470
ifying	-7471
igence	-7472
iguous	-7473
ipline	-7474
lected	-7475
loving	-7476
lysses	-7477
mented	-7478
nitude	-7479
omeday	-7480
oozled	-7481
opping	-7482
please	-7483
raying	-7484
reated	-7485
riends	-7486
seless	-7487
sevent	-7488
unning	-7489
urches	-7490
utions	-7491
▁1895,	-7492
▁Abbey	-7493
▁Alice	-7494
▁Ameri	-7495
▁Being	-7496
▁Bunny	-7497
▁Coast	-7498
▁Force	-7499
▁Guard	-7500
▁HAYES	-7501
▁Hands	-7502
▁Howie	-7503
▁Jamie	-7504
▁Julio	-7505
▁Katie	-7506
▁Latin	-7507
▁Mindy	-7508
▁OLNEY	-7509
▁Organ	-7510
▁Power	-7511
▁ROOSE	-7512
▁Rocky	-7513
▁Route	-7514
▁Sarah	-7515
▁Smith	-7516
▁Sperm	-7517
▁Terry	-7518
▁Times	-7519
▁Vince	-7520
▁Wayne	-7521
▁Wells	-7522
▁Whose	-7523
▁advoc	-7524
▁aimed	-7525
▁alien	-7526
▁annum	-7527
▁apple	-7528
▁arise	-7529
▁attic	-7530
▁avert	-7531
▁balls	-7532
▁batch	-7533
▁beard	-7534
▁bened	-7535
▁blond	-7536
▁boast	-7537
▁boats	-7538
▁boots	-7539
▁bread	-7540
▁brown	-7541
▁brush	-7542
▁butts	-7543
▁cater	-7544
▁chaos	-7545
▁coinc	-7546
▁comet	-7547
▁comin	-7548
▁corps	-7549
▁crash	-7550
▁cried	-7551
▁crops	-7552
▁crowd	-7553
▁deadl	-7554
▁decaf	-7555
▁disab	-7556
▁displ	-7557
▁distr	-7558
▁docks	-7559
▁drugs	-7560
▁drums	-7561
▁emanc	-7562
▁entry	-7563
▁envoy	-7564
▁faces	-7565
▁facts	-7566
▁fails	-7567
▁fancy	-7568
▁feast	-7569
▁flesh	-7570
▁focus	-7571
▁forty	-7572
▁frank	-7573
▁funds	-7574
▁globe	-7575
▁grass	-7576
▁grief	-7577
▁hated	-7578
▁havin	-7579
▁heavy	-7580
▁indic	-7581
▁inequ	-7582
▁kinds	-7583
▁layer	-7584
▁legit	-7585
▁lined	-7586
▁match	-7587
▁memor	-7588
▁model	-7589
▁mount	-7590
▁needy	-7591
▁nerve	-7592
▁notch	-7593
▁opera	-7594
▁overc	-7595
▁overt	-7596
▁pacif	-7597
▁paths	-7598
▁perse	-7599
▁phase	-7600
▁posts	-7601
▁punch	-7602
▁queen	-7603
▁races	-7604
▁raids	-7605
▁recur	-7606
▁refer	-7607
▁repel	-7608
▁reput	-7609
▁restr	-7610
▁round	-7611
▁sauti	-7612
▁saves	-7613
▁scare	-7614
▁scrud	-7615
▁seize	-7616
▁shock	-7617
▁shows	-7618
▁sides	-7619
▁sight	-7620
▁simpl	-7621
▁slice	-7622
▁slide	-7623
▁solic	-7624
▁solve	-7625
▁songs	-7626
▁souls	-7627
▁stack	-7628
▁stage	-7629
▁stake	-7630
▁stamp	-7631
▁stead	-7632
▁steam	-7633
▁steel	-7634
▁sugar	-7635
▁sword	-7636
▁tears	-7637
▁tells	-7638
▁theme	-7639
▁toast	-7640
▁tooth	-7641
▁torch	-7642
▁track	-7643
▁truly	-7644
▁unagi	-7645
▁unatt	-7646
ESIDENT	-7647
RICHARD	-7648
acecamp	-7649
assador	-7650
cieties	-7651
defense	-7652
entance	-7653
erested	-7654
hensive	-7655
husband	-7656
inafter	-7657
iration	-7658
menting	-7659
mitting	-7660
odities	-7661
ounding	-7662
racking	-7663
reaming	-7664
ronting	-7665
selfish	-7666
ulators	-7667
unately	-7668
utenant	-7669
versely	-7670
▁Action	-7671
▁Almost	-7672
▁Andrew	-7673
▁Angela	-7674
▁Begley	-7675
▁Cassie	-7676
▁Commer	-7677
▁Deeper	-7678
▁Fellow	-7679
▁Forces	-7680
▁Forget	-7681
▁Gentle	-7682
▁Ginger	-7683
▁Hawaii	-7684
▁Howard	-7685
▁Indeed	-7686
▁Janine	-7687
▁Ladies	-7688
▁Legisl	-7689
▁MONROE	-7690
▁Marion	-7691
▁Martin	-7692
▁Ohhhhh	-7693
▁Phoebs	-7694
▁Rhonda	-7695
▁Rights	-7696
▁Sergei	-7697
▁Sidney	-7698
▁Smelly	-7699
▁Sophie	-7700
▁Sovere	-7701
▁Steady	-7702
▁Though	-7703
▁Thread	-7704
▁Valent	-7705
▁adding	-7706
▁advise	-7707
▁agrees	-7708
▁antiqu	-7709
▁armies	-7710
▁arrive	-7711
▁astron	-7712
▁barric	-7713
▁beacon	-7714
▁beeped	-7715
▁betcha	-7716
▁bloody	-7717
▁blouse	-7718
▁breath	-7719
▁brunch	-7720
▁burial	-7721
▁burned	-7722
▁canvas	-7723
▁cervix	-7724
▁cities	-7725
▁classy	-7726
▁client	-7727
▁clinic	-7728
▁closet	-7729
▁clowns	-7730
▁coulda	-7731
▁creeps	-7732
▁creepy	-7733
▁crimes	-7734
▁crisis	-7735
▁cultiv	-7736
▁decent	-7737
▁deplet	-7738
▁devote	-7739
▁diaper	-7740
▁disint	-7741
▁dispos	-7742
▁drapes	-7743
▁earner	-7744
▁eleven	-7745
▁emphas	-7746
▁endure	-7747
▁entice	-7748
▁exempt	-7749
▁expand	-7750
▁fallen	-7751
▁farmer	-7752
▁favors	-7753
▁female	-7754
▁fields	-7755
▁finger	-7756
▁firmly	-7757
▁fitted	-7758
▁forced	-7759
▁formed	-7760
▁former	-7761
▁freely	-7762
▁fridge	-7763
▁fright	-7764
▁groups	-7765
▁hallow	-7766
▁halted	-7767
▁hardly	-7768
▁harmon	-7769
▁hatred	-7770
▁hernia	-7771
▁hidden	-7772
▁hiking	-7773
▁hollow	-7774
▁humbly	-7775
▁hungry	-7776
▁ignore	-7777
▁impose	-7778
▁impost	-7779
▁incons	-7780
▁incurs	-7781
▁induce	-7782
▁intend	-7783
▁intent	-7784
▁ironic	-7785
▁jacket	-7786
▁justly	-7787
▁larger	-7788
▁leader	-7789
▁league	-7790
▁leaves	-7791
▁licked	-7792
▁likely	-7793
▁liking	-7794
▁locked	-7795
▁lookin	-7796
▁louder	-7797
▁mascul	-7798
▁mental	-7799
▁messed	-7800
▁miscon	-7801
▁misled	-7802
▁motion	-7803
▁murder	-7804
▁naming	-7805
▁noises	-7806
▁novels	-7807
▁partly	-7808
▁pearls	-7809
▁peeing	-7810
▁phrase	-7811
▁planet	-7812
▁pledge	-7813
▁poking	-7814
▁preval	-7815
▁propag	-7816
▁puppet	-7817
▁receip	-7818
▁recipe	-7819
▁refuse	-7820
▁regime	-7821
▁relied	-7822
▁resent	-7823
▁reveal	-7824
▁ripped	-7825
▁rivers	-7826
▁rumors	-7827
▁severe	-7828
▁sheets	-7829
▁shield	-7830
▁siadic	-7831
▁slaves	-7832
▁smells	-7833
▁solved	-7834
▁source	-7835
▁spread	-7836
▁spring	-7837
▁stayed	-7838
▁stolen	-7839
▁subtle	-7840
▁suffer	-7841
▁tastes	-7842
▁tender	-7843
▁tomato	-7844
▁tongue	-7845
▁tragic	-7846
▁trifle	-7847
▁undist	-7848
▁uphold	-7849
▁visits	-7850
▁voices	-7851
▁waited	-7852
▁warned	-7853
▁waters	-7854
▁waving	-7855
▁weight	-7856
▁whilst	-7857
▁wicked	-7858
▁wished	-7859
▁wounds	-7860
adelphia	-7861
arations	-7862
cessions	-7863
citizens	-7864
disposed	-7865
eresting	-7866
ispering	-7867
issioner	-7868
justment	-7869
military	-7870
ographer	-7871
ontology	-7872
ournment	-7873
rupulous	-7874
ustrious	-7875
▁African	-7876
▁Alexand	-7877
▁Amazing	-7878
▁Article	-7879
▁Bedloes	-7880
▁Besides	-7881
▁Biology	-7882
▁Celtics	-7883
▁Chelsea	-7884
▁Chester	-7885
▁Chilean	-7886
▁Council	-7887
▁Counsel	-7888
▁Frannie	-7889
▁Freedom	-7890
▁Friends	-7891
▁Georgia	-7892
▁Heckles	-7893
▁Holiday	-7894
▁Jackson	-7895
▁Johnson	-7896
▁Kingdom	-7897
▁Knowing	-7898
▁Kristen	-7899
▁Kristin	-7900
▁	-7901
e	-7902
t	-7903
o	-7904
a	-7905
n	-7906
i	-7907
h	-7908
s	-7909
r	-7910
l	-7911
d	-7912
u	-7913
y	-7914
m	-7915
c	-7916
w	-7917
g	-7918
,	-7919
f	-7920
.	-7921
p	-7922
b	-7923
k	-7924
I	-7925
v	-7926
!	-7927
	-7928
?	-7929
'	-7930
O	-7931
W	-7932
Y	-7933
S	-7934
T	-7935
A	-7936
H	-7937
-	-7938
j	-7939
N	-7940
C	-7941
R	-7942
x	-7943
G	-7944
M	-7945
U	-7946
B	-7947
P	-7948
D	-7949
J	-7950
L	-7951
z	-7952
E	-7953
"	-7954
q	-7955
F	-7956
1	-7957
0	-7958
:	-7959
;	-7960
	-7961
	-7962
K	-7963
2	-7964
8	-7965
V	-7966
9	-7967
	-7968
3	-7969
’	-7970
5	-7971
7	-7972
4	-7973
6	-7974
—	-7975
$	-7976
(	-7977
*	-7978
Q	-7979
)	-7980
[	-7981
]	-7982
Z	-7983
	-7984
é	-7985
”	-7986
	-7987
%	-7988
&	-7989
/	-7990
“	-7991
X	-7992
~	-7993
	-7994
>	-7995
ó	-7996
